const unsigned char __attribute__((section(".tflite_model")))  trained_tflite[] = {
  0x1c, 0x00, 0x00, 0x00, 0x54, 0x46, 0x4c, 0x33, 0x00, 0x00, 0x12, 0x00,
  0x1c, 0x00, 0x04, 0x00, 0x08, 0x00, 0x0c, 0x00, 0x10, 0x00, 0x14, 0x00,
  0x00, 0x00, 0x18, 0x00, 0x12, 0x00, 0x00, 0x00, 0x03, 0x00, 0x00, 0x00,
  0xf0, 0x0c, 0x00, 0x00, 0xcc, 0x04, 0x00, 0x00, 0xb4, 0x04, 0x00, 0x00,
  0x3c, 0x00, 0x00, 0x00, 0x04, 0x00, 0x00, 0x00, 0x01, 0x00, 0x00, 0x00,
  0x0c, 0x00, 0x00, 0x00, 0x08, 0x00, 0x0c, 0x00, 0x04, 0x00, 0x08, 0x00,
  0x08, 0x00, 0x00, 0x00, 0x08, 0x00, 0x00, 0x00, 0x0c, 0x00, 0x00, 0x00,
  0x13, 0x00, 0x00, 0x00, 0x6d, 0x69, 0x6e, 0x5f, 0x72, 0x75, 0x6e, 0x74,
  0x69, 0x6d, 0x65, 0x5f, 0x76, 0x65, 0x72, 0x73, 0x69, 0x6f, 0x6e, 0x00,
  0x0d, 0x00, 0x00, 0x00, 0x6c, 0x04, 0x00, 0x00, 0x58, 0x04, 0x00, 0x00,
  0xec, 0x03, 0x00, 0x00, 0xa8, 0x03, 0x00, 0x00, 0x74, 0x03, 0x00, 0x00,
  0xd0, 0x01, 0x00, 0x00, 0xec, 0x00, 0x00, 0x00, 0x78, 0x00, 0x00, 0x00,
  0x6c, 0x00, 0x00, 0x00, 0x58, 0x00, 0x00, 0x00, 0x44, 0x00, 0x00, 0x00,
  0x30, 0x00, 0x00, 0x00, 0x04, 0x00, 0x00, 0x00, 0x36, 0xfb, 0xff, 0xff,
  0x04, 0x00, 0x00, 0x00, 0x10, 0x00, 0x00, 0x00, 0x31, 0x2e, 0x35, 0x2e,
  0x30, 0x00, 0x00, 0x00, 0x00, 0x00, 0x00, 0x00, 0x00, 0x00, 0x00, 0x00,
  0x00, 0x00, 0x00, 0x00, 0x00, 0x00, 0x00, 0x00, 0x00, 0x00, 0x00, 0x00,
  0x2c, 0xfb, 0xff, 0xff, 0x00, 0x00, 0x00, 0x00, 0x00, 0x00, 0x00, 0x00,
  0x00, 0x00, 0x00, 0x00, 0x3c, 0xfb, 0xff, 0xff, 0x00, 0x00, 0x00, 0x00,
  0x00, 0x00, 0x00, 0x00, 0x00, 0x00, 0x00, 0x00, 0x4c, 0xfb, 0xff, 0xff,
  0x00, 0x00, 0x00, 0x00, 0x00, 0x00, 0x00, 0x00, 0x00, 0x00, 0x00, 0x00,
  0x5c, 0xfb, 0xff, 0xff, 0x00, 0x00, 0x00, 0x00, 0x96, 0xfb, 0xff, 0xff,
  0x04, 0x00, 0x00, 0x00, 0x5a, 0x00, 0x00, 0x00, 0xec, 0x07, 0x03, 0xf9,
  0x02, 0xed, 0xe8, 0x18, 0x12, 0x01, 0xfd, 0xfa, 0x00, 0x0a, 0x08, 0xf5,
  0xfc, 0x0a, 0x01, 0xa4, 0xad, 0x04, 0xfe, 0x03, 0xfa, 0xf0, 0x05, 0xfe,
  0xff, 0x03, 0x08, 0x04, 0x03, 0xea, 0x08, 0x0e, 0x0c, 0x02, 0xf2, 0xd6,
  0x06, 0x04, 0x03, 0xee, 0x03, 0xfb, 0x0a, 0x08, 0x0d, 0xee, 0xa9, 0x05,
  0xff, 0x09, 0xf9, 0x8d, 0xa2, 0xde, 0xfc, 0x08, 0xfe, 0x00, 0xfa, 0xf0,
  0x08, 0x10, 0x08, 0xd2, 0xd6, 0x0e, 0xa3, 0x00, 0x06, 0x0b, 0xfb, 0xf7,
  0xe2, 0x81, 0xe0, 0x0c, 0x12, 0x02, 0x02, 0xdd, 0xfe, 0x1b, 0x16, 0xe3,
  0xd3, 0xf3, 0x00, 0x00, 0x00, 0x00, 0x00, 0x00, 0x00, 0x00, 0x00, 0x00,
  0x06, 0xfc, 0xff, 0xff, 0x04, 0x00, 0x00, 0x00, 0xc8, 0x00, 0x00, 0x00,
  0xf5, 0xfb, 0x05, 0x03, 0x2d, 0xf6, 0xfb, 0x03, 0xf2, 0xdc, 0xfb, 0x1a,
  0xe9, 0x39, 0xfb, 0x0f, 0xb7, 0x02, 0xcf, 0xfe, 0xf5, 0x02, 0xf8, 0x07,
  0x04, 0x01, 0x0c, 0xf9, 0xfa, 0xf4, 0x03, 0xf3, 0xfc, 0xfb, 0xf3, 0xf1,
  0xf9, 0x0b, 0x08, 0xf2, 0xf3, 0x0c, 0x04, 0xf8, 0x0b, 0x00, 0x07, 0xf9,
  0x0d, 0x0d, 0xf6, 0xf8, 0x05, 0xf0, 0x05, 0xfb, 0xfc, 0x10, 0xf1, 0xfb,
  0xf5, 0xde, 0xf6, 0xf2, 0x04, 0x08, 0x0b, 0x0d, 0x0f, 0xf4, 0x0d, 0x0e,
  0x2d, 0xfb, 0xfc, 0x48, 0x51, 0x05, 0x4a, 0x24, 0x03, 0x01, 0xf7, 0xf3,
  0xef, 0x0e, 0xfa, 0xff, 0xf6, 0x11, 0x01, 0xf0, 0xf2, 0x06, 0xfd, 0x03,
  0x03, 0xf1, 0x10, 0x04, 0x0a, 0xe1, 0xf3, 0x01, 0x0b, 0xfd, 0x00, 0xfc,
  0x10, 0xc5, 0xef, 0x2a, 0xc7, 0x2d, 0xf8, 0x26, 0xd0, 0xff, 0xd0, 0x0a,
  0x0d, 0xe3, 0x02, 0x0d, 0x1c, 0xfb, 0x02, 0x08, 0x07, 0xfa, 0xf8, 0x1e,
  0xd2, 0x18, 0xff, 0x0c, 0xef, 0xfc, 0xea, 0xf3, 0xf7, 0x7f, 0xf7, 0xf0,
  0x18, 0xfd, 0xfb, 0xf2, 0x0f, 0x54, 0x0b, 0x29, 0x14, 0x10, 0xfc, 0xca,
  0xce, 0x03, 0xf7, 0x01, 0xf5, 0x6b, 0x01, 0x08, 0x19, 0xff, 0x09, 0xf0,
  0xfd, 0x53, 0x07, 0x12, 0x4b, 0x09, 0xfd, 0xce, 0xd3, 0x0f, 0x12, 0xff,
  0xfb, 0xc0, 0x04, 0x0d, 0xe8, 0x0a, 0x0c, 0xf7, 0x0c, 0xc3, 0xfd, 0xff,
  0xef, 0xf5, 0xf2, 0x26, 0x4a, 0x10, 0x11, 0x29, 0x00, 0x00, 0x00, 0x00,
  0x00, 0x00, 0x00, 0x00, 0x00, 0x00, 0x00, 0x00, 0xe6, 0xfc, 0xff, 0xff,
  0x04, 0x00, 0x00, 0x00, 0x90, 0x01, 0x00, 0x00, 0xf8, 0xf9, 0xfa, 0x01,
  0xfe, 0x01, 0xf7, 0xf8, 0xf8, 0x02, 0x0a, 0xfb, 0xf9, 0x09, 0x04, 0x0a,
  0x0a, 0xfd, 0x07, 0xf9, 0x05, 0x06, 0x04, 0xff, 0x3d, 0x3c, 0x36, 0x3d,
  0x29, 0x7f, 0xe0, 0xd4, 0xda, 0xd2, 0x6c, 0xfb, 0xfa, 0xf7, 0x07, 0x19,
  0x00, 0xf6, 0xf8, 0x04, 0x00, 0x02, 0xf6, 0xfd, 0xf9, 0x01, 0xfc, 0xfd,
  0xf8, 0xfe, 0x06, 0xf7, 0xf9, 0xfe, 0x09, 0xf6, 0xf6, 0xfd, 0xf8, 0x04,
  0x03, 0x03, 0xf9, 0x02, 0x02, 0x09, 0x00, 0xf7, 0x02, 0x05, 0x01, 0xfb,
  0xfd, 0xfe, 0x0a, 0x06, 0x06, 0x0c, 0xff, 0x0c, 0x1f, 0x3b, 0x29, 0x2f,
  0x34, 0x4c, 0x09, 0x05, 0x05, 0x03, 0x45, 0x10, 0x0b, 0x0d, 0x13, 0x13,
  0x05, 0xfa, 0xfe, 0xfe, 0x00, 0x04, 0x03, 0x04, 0x00, 0xf7, 0xfb, 0xf9,
  0x0a, 0xfb, 0x08, 0x02, 0xfb, 0x04, 0x07, 0x09, 0xf8, 0x0a, 0xff, 0xfc,
  0xfc, 0x03, 0x03, 0xfe, 0xfb, 0x06, 0xf7, 0xf8, 0xf5, 0xf8, 0x09, 0x03,
  0xfe, 0x05, 0x03, 0xfc, 0xfc, 0x0a, 0xf9, 0xfe, 0xf7, 0x0a, 0x02, 0xf6,
  0x08, 0xf8, 0x07, 0xfa, 0xf8, 0xfb, 0xfa, 0xff, 0x00, 0xf8, 0x01, 0xfd,
  0x03, 0x04, 0x04, 0xf6, 0x06, 0x05, 0xfc, 0xfe, 0x04, 0xf7, 0xf5, 0x0a,
  0x00, 0xfc, 0xf5, 0xf9, 0x02, 0xfe, 0x07, 0x00, 0x03, 0x06, 0x05, 0x09,
  0x2c, 0x1e, 0x1b, 0x1d, 0x24, 0x74, 0xdd, 0xd8, 0xd8, 0xdc, 0x66, 0xf8,
  0xfe, 0x07, 0x05, 0x16, 0xf8, 0xf7, 0xf6, 0xf8, 0x0a, 0xfc, 0x03, 0x00,
  0x01, 0x07, 0x01, 0x09, 0x02, 0x09, 0xff, 0xf8, 0xf9, 0x06, 0xfd, 0xff,
  0x13, 0x10, 0x09, 0x08, 0x05, 0x4c, 0x45, 0x49, 0x4a, 0x0b, 0x17, 0x22,
  0x1b, 0x13, 0x1c, 0x11, 0x0e, 0x14, 0x15, 0xff, 0x0b, 0x0e, 0x09, 0x01,
  0x43, 0x05, 0x08, 0x06, 0x07, 0x77, 0xe3, 0xde, 0xdd, 0xed, 0x67, 0xf9,
  0x08, 0x02, 0xf9, 0x24, 0x06, 0x07, 0x01, 0x0b, 0x05, 0x36, 0x40, 0x37,
  0x3c, 0xf4, 0x29, 0x28, 0x24, 0x1b, 0x19, 0x15, 0x0c, 0x0e, 0x16, 0x05,
  0xfa, 0xf5, 0x0b, 0xfb, 0x05, 0xfc, 0x05, 0x07, 0x01, 0xfc, 0xf7, 0xfe,
  0xf7, 0xfd, 0x01, 0xfe, 0xfa, 0xfb, 0xfb, 0xfa, 0x04, 0x15, 0x07, 0x0e,
  0xc9, 0xdf, 0xd2, 0xcf, 0xd5, 0x8d, 0x28, 0x35, 0x29, 0x2b, 0x9c, 0x01,
  0x0a, 0x10, 0x10, 0xf1, 0x05, 0x16, 0x13, 0x0f, 0xf5, 0xbf, 0xbd, 0xba,
  0xbe, 0xf4, 0x03, 0xfb, 0xfd, 0xfa, 0xc7, 0x09, 0x0b, 0x08, 0xfb, 0x16,
  0xfb, 0x01, 0xf6, 0xf7, 0x09, 0xfc, 0x02, 0x08, 0xfa, 0x01, 0x01, 0x05,
  0x02, 0xfd, 0xfe, 0xfd, 0x00, 0xfe, 0xfa, 0x08, 0x05, 0x0a, 0x15, 0x16,
  0x1f, 0xee, 0xe8, 0xe3, 0xe7, 0x33, 0xe9, 0xeb, 0xfa, 0xf1, 0x12, 0x0e,
  0x02, 0x05, 0xfe, 0x1b, 0x05, 0x0d, 0x0f, 0x0d, 0x02, 0xe8, 0xe8, 0xe0,
  0xf2, 0xf8, 0x09, 0x13, 0x0b, 0x08, 0x04, 0xf2, 0xf2, 0xe4, 0xf2, 0xe9,
  0x00, 0x00, 0x00, 0x00, 0x86, 0xfe, 0xff, 0xff, 0x04, 0x00, 0x00, 0x00,
  0x24, 0x00, 0x00, 0x00, 0x39, 0x00, 0x00, 0x00, 0x42, 0x00, 0x00, 0x00,
  0xf6, 0xff, 0xff, 0xff, 0x4e, 0xff, 0xff, 0xff, 0xdf, 0xff, 0xff, 0xff,
  0x53, 0x00, 0x00, 0x00, 0x2e, 0xff, 0xff, 0xff, 0x13, 0x00, 0x00, 0x00,
  0x4c, 0xff, 0xff, 0xff, 0xb6, 0xfe, 0xff, 0xff, 0x04, 0x00, 0x00, 0x00,
  0x28, 0x00, 0x00, 0x00, 0xa8, 0xff, 0xff, 0xff, 0x00, 0x00, 0x00, 0x00,
  0x00, 0x00, 0x00, 0x00, 0xff, 0x03, 0x00, 0x00, 0x00, 0x00, 0x00, 0x00,
  0x06, 0xff, 0xff, 0xff, 0x4f, 0xfe, 0xff, 0xff, 0x71, 0x00, 0x00, 0x00,
  0xb9, 0x01, 0x00, 0x00, 0xb1, 0x00, 0x00, 0x00, 0x00, 0x00, 0x00, 0x00,
  0x00, 0x00, 0x00, 0x00, 0x00, 0x00, 0x00, 0x00, 0xf6, 0xfe, 0xff, 0xff,
  0x04, 0x00, 0x00, 0x00, 0x50, 0x00, 0x00, 0x00, 0x00, 0x00, 0x00, 0x00,
  0x6e, 0x0d, 0x00, 0x00, 0x00, 0x00, 0x00, 0x00, 0x00, 0x00, 0x00, 0x00,
  0x62, 0xfd, 0xff, 0xff, 0x00, 0x00, 0x00, 0x00, 0x00, 0x00, 0x00, 0x00,
  0x00, 0x00, 0x00, 0x00, 0xa6, 0xff, 0xff, 0xff, 0xb2, 0x0a, 0x00, 0x00,
  0x00, 0x00, 0x00, 0x00, 0x1b, 0x01, 0x00, 0x00, 0x3c, 0x17, 0x00, 0x00,
  0xd3, 0xf9, 0xff, 0xff, 0x00, 0x00, 0x00, 0x00, 0x6b, 0x00, 0x00, 0x00,
  0xc9, 0x10, 0x00, 0x00, 0x00, 0x00, 0x00, 0x00, 0xd2, 0x18, 0x00, 0x00,
  0x09, 0x10, 0x00, 0x00, 0x00, 0x00, 0x00, 0x00, 0x00, 0x00, 0x00, 0x00,
  0x00, 0x00, 0x00, 0x00, 0x2c, 0xff, 0xff, 0xff, 0x00, 0x00, 0x00, 0x00,
  0x00, 0x00, 0x00, 0x00, 0x00, 0x00, 0x00, 0x00, 0x3c, 0xff, 0xff, 0xff,
  0x0f, 0x00, 0x00, 0x00, 0x4d, 0x4c, 0x49, 0x52, 0x20, 0x43, 0x6f, 0x6e,
  0x76, 0x65, 0x72, 0x74, 0x65, 0x64, 0x2e, 0x00, 0x01, 0x00, 0x00, 0x00,
  0x14, 0x00, 0x00, 0x00, 0x00, 0x00, 0x0e, 0x00, 0x18, 0x00, 0x04, 0x00,
  0x08, 0x00, 0x0c, 0x00, 0x10, 0x00, 0x14, 0x00, 0x0e, 0x00, 0x00, 0x00,
  0x50, 0x01, 0x00, 0x00, 0x44, 0x01, 0x00, 0x00, 0x38, 0x01, 0x00, 0x00,
  0x14, 0x00, 0x00, 0x00, 0x04, 0x00, 0x00, 0x00, 0x04, 0x00, 0x00, 0x00,
  0x6d, 0x61, 0x69, 0x6e, 0x00, 0x00, 0x00, 0x00, 0x04, 0x00, 0x00, 0x00,
  0xe0, 0x00, 0x00, 0x00, 0x98, 0x00, 0x00, 0x00, 0x50, 0x00, 0x00, 0x00,
  0x14, 0x00, 0x00, 0x00, 0x00, 0x00, 0x0e, 0x00, 0x1a, 0x00, 0x08, 0x00,
  0x0c, 0x00, 0x10, 0x00, 0x07, 0x00, 0x14, 0x00, 0x0e, 0x00, 0x00, 0x00,
  0x00, 0x00, 0x00, 0x09, 0x01, 0x00, 0x00, 0x00, 0x24, 0x00, 0x00, 0x00,
  0x18, 0x00, 0x00, 0x00, 0x0c, 0x00, 0x00, 0x00, 0x00, 0x00, 0x06, 0x00,
  0x08, 0x00, 0x04, 0x00, 0x06, 0x00, 0x00, 0x00, 0x00, 0x00, 0x80, 0x3f,
  0x01, 0x00, 0x00, 0x00, 0x0a, 0x00, 0x00, 0x00, 0x01, 0x00, 0x00, 0x00,
  0x09, 0x00, 0x00, 0x00, 0xca, 0xff, 0xff, 0xff, 0x00, 0x00, 0x00, 0x08,
  0x1c, 0x00, 0x00, 0x00, 0x10, 0x00, 0x00, 0x00, 0x08, 0x00, 0x00, 0x00,
  0x04, 0x00, 0x04, 0x00, 0x04, 0x00, 0x00, 0x00, 0x01, 0x00, 0x00, 0x00,
  0x09, 0x00, 0x00, 0x00, 0x03, 0x00, 0x00, 0x00, 0x08, 0x00, 0x00, 0x00,
  0x06, 0x00, 0x00, 0x00, 0x03, 0x00, 0x00, 0x00, 0x00, 0x00, 0x0e, 0x00,
  0x14, 0x00, 0x00, 0x00, 0x08, 0x00, 0x0c, 0x00, 0x07, 0x00, 0x10, 0x00,
  0x0e, 0x00, 0x00, 0x00, 0x00, 0x00, 0x00, 0x08, 0x1c, 0x00, 0x00, 0x00,
  0x10, 0x00, 0x00, 0x00, 0x04, 0x00, 0x00, 0x00, 0xba, 0xff, 0xff, 0xff,
  0x00, 0x00, 0x00, 0x01, 0x01, 0x00, 0x00, 0x00, 0x08, 0x00, 0x00, 0x00,
  0x03, 0x00, 0x00, 0x00, 0x07, 0x00, 0x00, 0x00, 0x05, 0x00, 0x00, 0x00,
  0x02, 0x00, 0x00, 0x00, 0x00, 0x00, 0x0e, 0x00, 0x16, 0x00, 0x00, 0x00,
  0x08, 0x00, 0x0c, 0x00, 0x07, 0x00, 0x10, 0x00, 0x0e, 0x00, 0x00, 0x00,
  0x00, 0x00, 0x00, 0x08, 0x24, 0x00, 0x00, 0x00, 0x18, 0x00, 0x00, 0x00,
  0x0c, 0x00, 0x00, 0x00, 0x00, 0x00, 0x06, 0x00, 0x08, 0x00, 0x07, 0x00,
  0x06, 0x00, 0x00, 0x00, 0x00, 0x00, 0x00, 0x01, 0x01, 0x00, 0x00, 0x00,
  0x07, 0x00, 0x00, 0x00, 0x03, 0x00, 0x00, 0x00, 0x00, 0x00, 0x00, 0x00,
  0x04, 0x00, 0x00, 0x00, 0x01, 0x00, 0x00, 0x00, 0x01, 0x00, 0x00, 0x00,
  0x0a, 0x00, 0x00, 0x00, 0x01, 0x00, 0x00, 0x00, 0x00, 0x00, 0x00, 0x00,
  0x0b, 0x00, 0x00, 0x00, 0x38, 0x06, 0x00, 0x00, 0xc4, 0x05, 0x00, 0x00,
  0x6c, 0x05, 0x00, 0x00, 0x18, 0x05, 0x00, 0x00, 0x6c, 0x04, 0x00, 0x00,
  0xb8, 0x03, 0x00, 0x00, 0x04, 0x03, 0x00, 0x00, 0x10, 0x02, 0x00, 0x00,
  0x14, 0x01, 0x00, 0x00, 0x60, 0x00, 0x00, 0x00, 0x04, 0x00, 0x00, 0x00,
  0x02, 0xfa, 0xff, 0xff, 0x00, 0x00, 0x00, 0x09, 0x44, 0x00, 0x00, 0x00,
  0x0b, 0x00, 0x00, 0x00, 0x2c, 0x00, 0x00, 0x00, 0x04, 0x00, 0x00, 0x00,
  0x64, 0xfa, 0xff, 0xff, 0x18, 0x00, 0x00, 0x00, 0x04, 0x00, 0x00, 0x00,
  0x01, 0x00, 0x00, 0x00, 0x80, 0xff, 0xff, 0xff, 0xff, 0xff, 0xff, 0xff,
  0x00, 0x00, 0x00, 0x00, 0x01, 0x00, 0x00, 0x00, 0x00, 0x00, 0x80, 0x3b,
  0x08, 0x00, 0x00, 0x00, 0x49, 0x64, 0x65, 0x6e, 0x74, 0x69, 0x74, 0x79,
  0x00, 0x00, 0x00, 0x00, 0x02, 0x00, 0x00, 0x00, 0x01, 0x00, 0x00, 0x00,
  0x09, 0x00, 0x00, 0x00, 0x5a, 0xfa, 0xff, 0xff, 0x00, 0x00, 0x00, 0x09,
  0x9c, 0x00, 0x00, 0x00, 0x0a, 0x00, 0x00, 0x00, 0x44, 0x00, 0x00, 0x00,
  0x04, 0x00, 0x00, 0x00, 0x4c, 0xfa, 0xff, 0xff, 0x30, 0x00, 0x00, 0x00,
  0x24, 0x00, 0x00, 0x00, 0x18, 0x00, 0x00, 0x00, 0x04, 0x00, 0x00, 0x00,
  0x01, 0x00, 0x00, 0x00, 0x6f, 0x00, 0x00, 0x00, 0x00, 0x00, 0x00, 0x00,
  0x00, 0x00, 0x00, 0x00, 0x01, 0x00, 0x00, 0x00, 0x2a, 0xa0, 0xf4, 0x3f,
  0x01, 0x00, 0x00, 0x00, 0x03, 0xb6, 0xfb, 0x41, 0x01, 0x00, 0x00, 0x00,
  0x2a, 0xf0, 0xe3, 0xc3, 0x4b, 0x00, 0x00, 0x00, 0x73, 0x65, 0x71, 0x75,
  0x65, 0x6e, 0x74, 0x69, 0x61, 0x6c, 0x2f, 0x79, 0x5f, 0x70, 0x72, 0x65,
  0x64, 0x2f, 0x42, 0x69, 0x61, 0x73, 0x41, 0x64, 0x64, 0x3b, 0x53, 0x74,
  0x61, 0x74, 0x65, 0x66, 0x75, 0x6c, 0x50, 0x61, 0x72, 0x74, 0x69, 0x74,
  0x69, 0x6f, 0x6e, 0x65, 0x64, 0x43, 0x61, 0x6c, 0x6c, 0x2f, 0x73, 0x65,
  0x71, 0x75, 0x65, 0x6e, 0x74, 0x69, 0x61, 0x6c, 0x2f, 0x79, 0x5f, 0x70,
  0x72, 0x65, 0x64, 0x2f, 0x42, 0x69, 0x61, 0x73, 0x41, 0x64, 0x64, 0x00,
  0x02, 0x00, 0x00, 0x00, 0x01, 0x00, 0x00, 0x00, 0x09, 0x00, 0x00, 0x00,
  0x0a, 0xfb, 0xff, 0xff, 0x00, 0x00, 0x00, 0x09, 0xe4, 0x00, 0x00, 0x00,
  0x09, 0x00, 0x00, 0x00, 0x40, 0x00, 0x00, 0x00, 0x04, 0x00, 0x00, 0x00,
  0xfc, 0xfa, 0xff, 0xff, 0x2c, 0x00, 0x00, 0x00, 0x20, 0x00, 0x00, 0x00,
  0x14, 0x00, 0x00, 0x00, 0x04, 0x00, 0x00, 0x00, 0x01, 0x00, 0x00, 0x00,
  0x80, 0xff, 0xff, 0xff, 0xff, 0xff, 0xff, 0xff, 0x01, 0x00, 0x00, 0x00,
  0x20, 0x27, 0xca, 0x3d, 0x01, 0x00, 0x00, 0x00, 0xf9, 0x5c, 0xc9, 0x41,
  0x01, 0x00, 0x00, 0x00, 0x00, 0x00, 0x00, 0x00, 0x95, 0x00, 0x00, 0x00,
  0x73, 0x65, 0x71, 0x75, 0x65, 0x6e, 0x74, 0x69, 0x61, 0x6c, 0x2f, 0x64,
  0x65, 0x6e, 0x73, 0x65, 0x5f, 0x31, 0x2f, 0x52, 0x65, 0x6c, 0x75, 0x3b,
  0x53, 0x74, 0x61, 0x74, 0x65, 0x66, 0x75, 0x6c, 0x50, 0x61, 0x72, 0x74,
  0x69, 0x74, 0x69, 0x6f, 0x6e, 0x65, 0x64, 0x43, 0x61, 0x6c, 0x6c, 0x2f,
  0x73, 0x65, 0x71, 0x75, 0x65, 0x6e, 0x74, 0x69, 0x61, 0x6c, 0x2f, 0x64,
  0x65, 0x6e, 0x73, 0x65, 0x5f, 0x31, 0x2f, 0x52, 0x65, 0x6c, 0x75, 0x3b,
  0x73, 0x65, 0x71, 0x75, 0x65, 0x6e, 0x74, 0x69, 0x61, 0x6c, 0x2f, 0x64,
  0x65, 0x6e, 0x73, 0x65, 0x5f, 0x31, 0x2f, 0x42, 0x69, 0x61, 0x73, 0x41,
  0x64, 0x64, 0x3b, 0x53, 0x74, 0x61, 0x74, 0x65, 0x66, 0x75, 0x6c, 0x50,
  0x61, 0x72, 0x74, 0x69, 0x74, 0x69, 0x6f, 0x6e, 0x65, 0x64, 0x43, 0x61,
  0x6c, 0x6c, 0x2f, 0x73, 0x65, 0x71, 0x75, 0x65, 0x6e, 0x74, 0x69, 0x61,
  0x6c, 0x2f, 0x64, 0x65, 0x6e, 0x73, 0x65, 0x5f, 0x31, 0x2f, 0x42, 0x69,
  0x61, 0x73, 0x41, 0x64, 0x64, 0x00, 0x00, 0x00, 0x02, 0x00, 0x00, 0x00,
  0x01, 0x00, 0x00, 0x00, 0x0a, 0x00, 0x00, 0x00, 0x02, 0xfc, 0xff, 0xff,
  0x00, 0x00, 0x00, 0x09, 0xdc, 0x00, 0x00, 0x00, 0x08, 0x00, 0x00, 0x00,
  0x40, 0x00, 0x00, 0x00, 0x04, 0x00, 0x00, 0x00, 0xf4, 0xfb, 0xff, 0xff,
  0x2c, 0x00, 0x00, 0x00, 0x20, 0x00, 0x00, 0x00, 0x14, 0x00, 0x00, 0x00,
  0x04, 0x00, 0x00, 0x00, 0x01, 0x00, 0x00, 0x00, 0x80, 0xff, 0xff, 0xff,
  0xff, 0xff, 0xff, 0xff, 0x01, 0x00, 0x00, 0x00, 0xd9, 0x8c, 0x1e, 0x3d,
  0x01, 0x00, 0x00, 0x00, 0x4c, 0xee, 0x1d, 0x41, 0x01, 0x00, 0x00, 0x00,
  0x00, 0x00, 0x00, 0x00, 0x8d, 0x00, 0x00, 0x00, 0x73, 0x65, 0x71, 0x75,
  0x65, 0x6e, 0x74, 0x69, 0x61, 0x6c, 0x2f, 0x64, 0x65, 0x6e, 0x73, 0x65,
  0x2f, 0x52, 0x65, 0x6c, 0x75, 0x3b, 0x53, 0x74, 0x61, 0x74, 0x65, 0x66,
  0x75, 0x6c, 0x50, 0x61, 0x72, 0x74, 0x69, 0x74, 0x69, 0x6f, 0x6e, 0x65,
  0x64, 0x43, 0x61, 0x6c, 0x6c, 0x2f, 0x73, 0x65, 0x71, 0x75, 0x65, 0x6e,
  0x74, 0x69, 0x61, 0x6c, 0x2f, 0x64, 0x65, 0x6e, 0x73, 0x65, 0x2f, 0x52,
  0x65, 0x6c, 0x75, 0x3b, 0x73, 0x65, 0x71, 0x75, 0x65, 0x6e, 0x74, 0x69,
  0x61, 0x6c, 0x2f, 0x64, 0x65, 0x6e, 0x73, 0x65, 0x2f, 0x42, 0x69, 0x61,
  0x73, 0x41, 0x64, 0x64, 0x3b, 0x53, 0x74, 0x61, 0x74, 0x65, 0x66, 0x75,
  0x6c, 0x50, 0x61, 0x72, 0x74, 0x69, 0x74, 0x69, 0x6f, 0x6e, 0x65, 0x64,
  0x43, 0x61, 0x6c, 0x6c, 0x2f, 0x73, 0x65, 0x71, 0x75, 0x65, 0x6e, 0x74,
  0x69, 0x61, 0x6c, 0x2f, 0x64, 0x65, 0x6e, 0x73, 0x65, 0x2f, 0x42, 0x69,
  0x61, 0x73, 0x41, 0x64, 0x64, 0x00, 0x00, 0x00, 0x02, 0x00, 0x00, 0x00,
  0x01, 0x00, 0x00, 0x00, 0x14, 0x00, 0x00, 0x00, 0xf2, 0xfc, 0xff, 0xff,
  0x00, 0x00, 0x00, 0x09, 0x9c, 0x00, 0x00, 0x00, 0x07, 0x00, 0x00, 0x00,
  0x44, 0x00, 0x00, 0x00, 0x04, 0x00, 0x00, 0x00, 0xe4, 0xfc, 0xff, 0xff,
  0x30, 0x00, 0x00, 0x00, 0x24, 0x00, 0x00, 0x00, 0x18, 0x00, 0x00, 0x00,
  0x04, 0x00, 0x00, 0x00, 0x01, 0x00, 0x00, 0x00, 0x00, 0x00, 0x00, 0x00,
  0x00, 0x00, 0x00, 0x00, 0x00, 0x00, 0x00, 0x00, 0x01, 0x00, 0x00, 0x00,
  0x4a, 0x79, 0x89, 0x3d, 0x01, 0x00, 0x00, 0x00, 0x8e, 0xef, 0xe6, 0x3f,
  0x01, 0x00, 0x00, 0x00, 0x57, 0x66, 0x08, 0xc1, 0x49, 0x00, 0x00, 0x00,
  0x73, 0x65, 0x71, 0x75, 0x65, 0x6e, 0x74, 0x69, 0x61, 0x6c, 0x2f, 0x79,
  0x5f, 0x70, 0x72, 0x65, 0x64, 0x2f, 0x4d, 0x61, 0x74, 0x4d, 0x75, 0x6c,
  0x3b, 0x53, 0x74, 0x61, 0x74, 0x65, 0x66, 0x75, 0x6c, 0x50, 0x61, 0x72,
  0x74, 0x69, 0x74, 0x69, 0x6f, 0x6e, 0x65, 0x64, 0x43, 0x61, 0x6c, 0x6c,
  0x2f, 0x73, 0x65, 0x71, 0x75, 0x65, 0x6e, 0x74, 0x69, 0x61, 0x6c, 0x2f,
  0x79, 0x5f, 0x70, 0x72, 0x65, 0x64, 0x2f, 0x4d, 0x61, 0x74, 0x4d, 0x75,
  0x6c, 0x00, 0x00, 0x00, 0x02, 0x00, 0x00, 0x00, 0x09, 0x00, 0x00, 0x00,
  0x0a, 0x00, 0x00, 0x00, 0xa2, 0xfd, 0xff, 0xff, 0x00, 0x00, 0x00, 0x09,
  0x9c, 0x00, 0x00, 0x00, 0x06, 0x00, 0x00, 0x00, 0x44, 0x00, 0x00, 0x00,
  0x04, 0x00, 0x00, 0x00, 0x94, 0xfd, 0xff, 0xff, 0x30, 0x00, 0x00, 0x00,
  0x24, 0x00, 0x00, 0x00, 0x18, 0x00, 0x00, 0x00, 0x04, 0x00, 0x00, 0x00,
  0x01, 0x00, 0x00, 0x00, 0x00, 0x00, 0x00, 0x00, 0x00, 0x00, 0x00, 0x00,
  0x00, 0x00, 0x00, 0x00, 0x01, 0x00, 0x00, 0x00, 0x2b, 0x91, 0xd1, 0x3c,
  0x01, 0x00, 0x00, 0x00, 0x09, 0xee, 0x4f, 0x40, 0x01, 0x00, 0x00, 0x00,
  0x5e, 0x7f, 0xee, 0xbf, 0x4b, 0x00, 0x00, 0x00, 0x73, 0x65, 0x71, 0x75,
  0x65, 0x6e, 0x74, 0x69, 0x61, 0x6c, 0x2f, 0x64, 0x65, 0x6e, 0x73, 0x65,
  0x5f, 0x31, 0x2f, 0x4d, 0x61, 0x74, 0x4d, 0x75, 0x6c, 0x3b, 0x53, 0x74,
  0x61, 0x74, 0x65, 0x66, 0x75, 0x6c, 0x50, 0x61, 0x72, 0x74, 0x69, 0x74,
  0x69, 0x6f, 0x6e, 0x65, 0x64, 0x43, 0x61, 0x6c, 0x6c, 0x2f, 0x73, 0x65,
  0x71, 0x75, 0x65, 0x6e, 0x74, 0x69, 0x61, 0x6c, 0x2f, 0x64, 0x65, 0x6e,
  0x73, 0x65, 0x5f, 0x31, 0x2f, 0x4d, 0x61, 0x74, 0x4d, 0x75, 0x6c, 0x00,
  0x02, 0x00, 0x00, 0x00, 0x0a, 0x00, 0x00, 0x00, 0x14, 0x00, 0x00, 0x00,
  0x52, 0xfe, 0xff, 0xff, 0x00, 0x00, 0x00, 0x09, 0x94, 0x00, 0x00, 0x00,
  0x05, 0x00, 0x00, 0x00, 0x40, 0x00, 0x00, 0x00, 0x04, 0x00, 0x00, 0x00,
  0x44, 0xfe, 0xff, 0xff, 0x2c, 0x00, 0x00, 0x00, 0x20, 0x00, 0x00, 0x00,
  0x14, 0x00, 0x00, 0x00, 0x04, 0x00, 0x00, 0x00, 0x01, 0x00, 0x00, 0x00,
  0x00, 0x00, 0x00, 0x00, 0x00, 0x00, 0x00, 0x00, 0x01, 0x00, 0x00, 0x00,
  0x78, 0x37, 0x14, 0x3d, 0x01, 0x00, 0x00, 0x00, 0x09, 0x0f, 0x93, 0x40,
  0x01, 0x00, 0x00, 0x00, 0xc6, 0xc5, 0x84, 0xc0, 0x47, 0x00, 0x00, 0x00,
  0x73, 0x65, 0x71, 0x75, 0x65, 0x6e, 0x74, 0x69, 0x61, 0x6c, 0x2f, 0x64,
  0x65, 0x6e, 0x73, 0x65, 0x2f, 0x4d, 0x61, 0x74, 0x4d, 0x75, 0x6c, 0x3b,
  0x53, 0x74, 0x61, 0x74, 0x65, 0x66, 0x75, 0x6c, 0x50, 0x61, 0x72, 0x74,
  0x69, 0x74, 0x69, 0x6f, 0x6e, 0x65, 0x64, 0x43, 0x61, 0x6c, 0x6c, 0x2f,
  0x73, 0x65, 0x71, 0x75, 0x65, 0x6e, 0x74, 0x69, 0x61, 0x6c, 0x2f, 0x64,
  0x65, 0x6e, 0x73, 0x65, 0x2f, 0x4d, 0x61, 0x74, 0x4d, 0x75, 0x6c, 0x00,
  0x02, 0x00, 0x00, 0x00, 0x14, 0x00, 0x00, 0x00, 0x14, 0x00, 0x00, 0x00,
  0xfa, 0xfe, 0xff, 0xff, 0x00, 0x00, 0x00, 0x02, 0x40, 0x00, 0x00, 0x00,
  0x04, 0x00, 0x00, 0x00, 0x28, 0x00, 0x00, 0x00, 0x04, 0x00, 0x00, 0x00,
  0x5c, 0xff, 0xff, 0xff, 0x14, 0x00, 0x00, 0x00, 0x04, 0x00, 0x00, 0x00,
  0x01, 0x00, 0x00, 0x00, 0x00, 0x00, 0x00, 0x00, 0x00, 0x00, 0x00, 0x00,
  0x01, 0x00, 0x00, 0x00, 0x6e, 0x1d, 0xd9, 0x3b, 0x09, 0x00, 0x00, 0x00,
  0x75, 0x6e, 0x6b, 0x6e, 0x6f, 0x77, 0x6e, 0x5f, 0x34, 0x00, 0x00, 0x00,
  0x01, 0x00, 0x00, 0x00, 0x09, 0x00, 0x00, 0x00, 0x4a, 0xff, 0xff, 0xff,
  0x00, 0x00, 0x00, 0x02, 0x44, 0x00, 0x00, 0x00, 0x03, 0x00, 0x00, 0x00,
  0x2c, 0x00, 0x00, 0x00, 0x04, 0x00, 0x00, 0x00, 0xac, 0xff, 0xff, 0xff,
  0x18, 0x00, 0x00, 0x00, 0x04, 0x00, 0x00, 0x00, 0x01, 0x00, 0x00, 0x00,
  0x00, 0x00, 0x00, 0x00, 0x00, 0x00, 0x00, 0x00, 0x00, 0x00, 0x00, 0x00,
  0x01, 0x00, 0x00, 0x00, 0xe6, 0xca, 0x81, 0x3a, 0x09, 0x00, 0x00, 0x00,
  0x75, 0x6e, 0x6b, 0x6e, 0x6f, 0x77, 0x6e, 0x5f, 0x32, 0x00, 0x00, 0x00,
  0x01, 0x00, 0x00, 0x00, 0x0a, 0x00, 0x00, 0x00, 0x9e, 0xff, 0xff, 0xff,
  0x00, 0x00, 0x00, 0x02, 0x50, 0x00, 0x00, 0x00, 0x02, 0x00, 0x00, 0x00,
  0x38, 0x00, 0x00, 0x00, 0x10, 0x00, 0x00, 0x00, 0x0c, 0x00, 0x0c, 0x00,
  0x00, 0x00, 0x00, 0x00, 0x04, 0x00, 0x08, 0x00, 0x0c, 0x00, 0x00, 0x00,
  0x18, 0x00, 0x00, 0x00, 0x04, 0x00, 0x00, 0x00, 0x01, 0x00, 0x00, 0x00,
  0x00, 0x00, 0x00, 0x00, 0x00, 0x00, 0x00, 0x00, 0x00, 0x00, 0x00, 0x00,
  0x01, 0x00, 0x00, 0x00, 0x3d, 0x86, 0x11, 0x39, 0x09, 0x00, 0x00, 0x00,
  0x75, 0x6e, 0x6b, 0x6e, 0x6f, 0x77, 0x6e, 0x5f, 0x30, 0x00, 0x00, 0x00,
  0x01, 0x00, 0x00, 0x00, 0x14, 0x00, 0x00, 0x00, 0x00, 0x00, 0x0e, 0x00,
  0x18, 0x00, 0x08, 0x00, 0x07, 0x00, 0x0c, 0x00, 0x10, 0x00, 0x14, 0x00,
  0x0e, 0x00, 0x00, 0x00, 0x00, 0x00, 0x00, 0x09, 0x64, 0x00, 0x00, 0x00,
  0x01, 0x00, 0x00, 0x00, 0x4c, 0x00, 0x00, 0x00, 0x10, 0x00, 0x00, 0x00,
  0x0c, 0x00, 0x14, 0x00, 0x04, 0x00, 0x08, 0x00, 0x0c, 0x00, 0x10, 0x00,
  0x0c, 0x00, 0x00, 0x00, 0x2c, 0x00, 0x00, 0x00, 0x20, 0x00, 0x00, 0x00,
  0x14, 0x00, 0x00, 0x00, 0x04, 0x00, 0x00, 0x00, 0x01, 0x00, 0x00, 0x00,
  0x80, 0xff, 0xff, 0xff, 0xff, 0xff, 0xff, 0xff, 0x01, 0x00, 0x00, 0x00,
  0x90, 0x59, 0x7b, 0x3b, 0x01, 0x00, 0x00, 0x00, 0x36, 0x5e, 0x7a, 0x3f,
  0x01, 0x00, 0x00, 0x00, 0x00, 0x00, 0x00, 0x00, 0x0b, 0x00, 0x00, 0x00,
  0x64, 0x65, 0x6e, 0x73, 0x65, 0x5f, 0x69, 0x6e, 0x70, 0x75, 0x74, 0x00,
  0x02, 0x00, 0x00, 0x00, 0x01, 0x00, 0x00, 0x00, 0x14, 0x00, 0x00, 0x00,
  0x02, 0x00, 0x00, 0x00, 0x2c, 0x00, 0x00, 0x00, 0x10, 0x00, 0x00, 0x00,
  0x00, 0x00, 0x0a, 0x00, 0x0e, 0x00, 0x07, 0x00, 0x00, 0x00, 0x08, 0x00,
  0x0a, 0x00, 0x00, 0x00, 0x00, 0x00, 0x00, 0x19, 0x02, 0x00, 0x00, 0x00,
  0x00, 0x00, 0x0a, 0x00, 0x0c, 0x00, 0x07, 0x00, 0x00, 0x00, 0x08, 0x00,
  0x0a, 0x00, 0x00, 0x00, 0x00, 0x00, 0x00, 0x09, 0x04, 0x00, 0x00, 0x00
};
unsigned int trained_tflite_len = 3408;
