const unsigned char trained_tflite[] = {
  0x1c, 0x00, 0x00, 0x00, 0x54, 0x46, 0x4c, 0x33, 0x00, 0x00, 0x12, 0x00,
  0x1c, 0x00, 0x04, 0x00, 0x08, 0x00, 0x0c, 0x00, 0x10, 0x00, 0x14, 0x00,
  0x00, 0x00, 0x18, 0x00, 0x12, 0x00, 0x00, 0x00, 0x03, 0x00, 0x00, 0x00,
  0x14, 0x00, 0x00, 0x00, 0x1c, 0x00, 0x00, 0x00, 0xa8, 0x00, 0x00, 0x00,
  0x1c, 0x00, 0x00, 0x00, 0x50, 0x00, 0x00, 0x00, 0x02, 0x00, 0x00, 0x00,
  0xb0, 0x03, 0x00, 0x00, 0x6c, 0x01, 0x00, 0x00, 0x01, 0x00, 0x00, 0x00,
  0xb0, 0x00, 0x00, 0x00, 0x0d, 0x00, 0x00, 0x00, 0x50, 0x0a, 0x00, 0x00,
  0x4c, 0x0a, 0x00, 0x00, 0xa0, 0x09, 0x00, 0x00, 0x48, 0x09, 0x00, 0x00,
  0xfc, 0x08, 0x00, 0x00, 0xfc, 0x05, 0x00, 0x00, 0xf8, 0x04, 0x00, 0x00,
  0x44, 0x04, 0x00, 0x00, 0x30, 0x0a, 0x00, 0x00, 0x2c, 0x0a, 0x00, 0x00,
  0x28, 0x0a, 0x00, 0x00, 0x24, 0x0a, 0x00, 0x00, 0x38, 0x00, 0x00, 0x00,
  0x01, 0x00, 0x00, 0x00, 0x0c, 0x00, 0x00, 0x00, 0x08, 0x00, 0x0c, 0x00,
  0x04, 0x00, 0x08, 0x00, 0x08, 0x00, 0x00, 0x00, 0x08, 0x00, 0x00, 0x00,
  0x0c, 0x00, 0x00, 0x00, 0x13, 0x00, 0x00, 0x00, 0x6d, 0x69, 0x6e, 0x5f,
  0x72, 0x75, 0x6e, 0x74, 0x69, 0x6d, 0x65, 0x5f, 0x76, 0x65, 0x72, 0x73,
  0x69, 0x6f, 0x6e, 0x00, 0xc6, 0xf6, 0xff, 0xff, 0x04, 0x00, 0x00, 0x00,
  0x10, 0x00, 0x00, 0x00, 0x31, 0x2e, 0x35, 0x2e, 0x30, 0x00, 0x00, 0x00,
  0x00, 0x00, 0x00, 0x00, 0x00, 0x00, 0x00, 0x00, 0x0f, 0x00, 0x00, 0x00,
  0x4d, 0x4c, 0x49, 0x52, 0x20, 0x43, 0x6f, 0x6e, 0x76, 0x65, 0x72, 0x74,
  0x65, 0x64, 0x2e, 0x00, 0x00, 0x00, 0x0e, 0x00, 0x18, 0x00, 0x04, 0x00,
  0x08, 0x00, 0x0c, 0x00, 0x10, 0x00, 0x14, 0x00, 0x0e, 0x00, 0x00, 0x00,
  0x14, 0x00, 0x00, 0x00, 0x40, 0x00, 0x00, 0x00, 0x44, 0x00, 0x00, 0x00,
  0x48, 0x00, 0x00, 0x00, 0x58, 0x00, 0x00, 0x00, 0x0b, 0x00, 0x00, 0x00,
  0x54, 0x09, 0x00, 0x00, 0x0c, 0x09, 0x00, 0x00, 0xa4, 0x08, 0x00, 0x00,
  0x54, 0x08, 0x00, 0x00, 0xc8, 0x07, 0x00, 0x00, 0xc4, 0x04, 0x00, 0x00,
  0xc0, 0x03, 0x00, 0x00, 0xc8, 0x02, 0x00, 0x00, 0xa0, 0x01, 0x00, 0x00,
  0xe4, 0x00, 0x00, 0x00, 0x7c, 0x00, 0x00, 0x00, 0x01, 0x00, 0x00, 0x00,
  0x00, 0x00, 0x00, 0x00, 0x01, 0x00, 0x00, 0x00, 0x0a, 0x00, 0x00, 0x00,
  0x04, 0x00, 0x00, 0x00, 0x50, 0x02, 0x00, 0x00, 0x48, 0x01, 0x00, 0x00,
  0x90, 0x00, 0x00, 0x00, 0x1c, 0x00, 0x00, 0x00, 0x04, 0x00, 0x00, 0x00,
  0x6d, 0x61, 0x69, 0x6e, 0x00, 0x00, 0x0e, 0x00, 0x18, 0x00, 0x08, 0x00,
  0x0c, 0x00, 0x10, 0x00, 0x07, 0x00, 0x14, 0x00, 0x0e, 0x00, 0x00, 0x00,
  0x00, 0x00, 0x00, 0x09, 0x01, 0x00, 0x00, 0x00, 0x1c, 0x00, 0x00, 0x00,
  0x10, 0x00, 0x00, 0x00, 0x04, 0x00, 0x00, 0x00, 0xa2, 0xf7, 0xff, 0xff,
  0x00, 0x00, 0x80, 0x3f, 0x01, 0x00, 0x00, 0x00, 0x0a, 0x00, 0x00, 0x00,
  0x01, 0x00, 0x00, 0x00, 0x09, 0x00, 0x00, 0x00, 0xca, 0xfd, 0xff, 0xff,
  0x00, 0x00, 0x00, 0x19, 0x01, 0x00, 0x00, 0x00, 0x5e, 0xf7, 0xff, 0xff,
  0x10, 0x00, 0x00, 0x00, 0x0b, 0x00, 0x00, 0x00, 0x14, 0x00, 0x00, 0x00,
  0x20, 0x00, 0x00, 0x00, 0x02, 0x00, 0x00, 0x00, 0x01, 0x00, 0x00, 0x00,
  0x03, 0x00, 0x00, 0x00, 0x08, 0x00, 0x00, 0x00, 0x49, 0x64, 0x65, 0x6e,
  0x74, 0x69, 0x74, 0x79, 0x00, 0x00, 0x00, 0x00, 0x4c, 0xf7, 0xff, 0xff,
  0x5a, 0xff, 0xff, 0xff, 0x00, 0x00, 0x00, 0x08, 0x18, 0x00, 0x00, 0x00,
  0x0c, 0x00, 0x00, 0x00, 0x04, 0x00, 0x00, 0x00, 0x64, 0xf7, 0xff, 0xff,
  0x01, 0x00, 0x00, 0x00, 0x09, 0x00, 0x00, 0x00, 0x03, 0x00, 0x00, 0x00,
  0x08, 0x00, 0x00, 0x00, 0x06, 0x00, 0x00, 0x00, 0x03, 0x00, 0x00, 0x00,
  0xc2, 0xf7, 0xff, 0xff, 0x10, 0x00, 0x00, 0x00, 0x0a, 0x00, 0x00, 0x00,
  0x14, 0x00, 0x00, 0x00, 0x60, 0x00, 0x00, 0x00, 0x02, 0x00, 0x00, 0x00,
  0x01, 0x00, 0x00, 0x00, 0x03, 0x00, 0x00, 0x00, 0x4b, 0x00, 0x00, 0x00,
  0x73, 0x65, 0x71, 0x75, 0x65, 0x6e, 0x74, 0x69, 0x61, 0x6c, 0x2f, 0x79,
  0x5f, 0x70, 0x72, 0x65, 0x64, 0x2f, 0x42, 0x69, 0x61, 0x73, 0x41, 0x64,
  0x64, 0x3b, 0x53, 0x74, 0x61, 0x74, 0x65, 0x66, 0x75, 0x6c, 0x50, 0x61,
  0x72, 0x74, 0x69, 0x74, 0x69, 0x6f, 0x6e, 0x65, 0x64, 0x43, 0x61, 0x6c,
  0x6c, 0x2f, 0x73, 0x65, 0x71, 0x75, 0x65, 0x6e, 0x74, 0x69, 0x61, 0x6c,
  0x2f, 0x79, 0x5f, 0x70, 0x72, 0x65, 0x64, 0x2f, 0x42, 0x69, 0x61, 0x73,
  0x41, 0x64, 0x64, 0x00, 0x3c, 0xf8, 0xff, 0xff, 0x00, 0x00, 0x0e, 0x00,
  0x14, 0x00, 0x00, 0x00, 0x08, 0x00, 0x0c, 0x00, 0x07, 0x00, 0x10, 0x00,
  0x0e, 0x00, 0x00, 0x00, 0x00, 0x00, 0x00, 0x08, 0x1c, 0x00, 0x00, 0x00,
  0x10, 0x00, 0x00, 0x00, 0x04, 0x00, 0x00, 0x00, 0xfa, 0xfe, 0xff, 0xff,
  0x00, 0x00, 0x00, 0x01, 0x01, 0x00, 0x00, 0x00, 0x08, 0x00, 0x00, 0x00,
  0x03, 0x00, 0x00, 0x00, 0x07, 0x00, 0x00, 0x00, 0x05, 0x00, 0x00, 0x00,
  0x02, 0x00, 0x00, 0x00, 0x7a, 0xf8, 0xff, 0xff, 0x10, 0x00, 0x00, 0x00,
  0x09, 0x00, 0x00, 0x00, 0x14, 0x00, 0x00, 0x00, 0xac, 0x00, 0x00, 0x00,
  0x02, 0x00, 0x00, 0x00, 0x01, 0x00, 0x00, 0x00, 0x04, 0x00, 0x00, 0x00,
  0x95, 0x00, 0x00, 0x00, 0x73, 0x65, 0x71, 0x75, 0x65, 0x6e, 0x74, 0x69,
  0x61, 0x6c, 0x2f, 0x64, 0x65, 0x6e, 0x73, 0x65, 0x5f, 0x31, 0x2f, 0x52,
  0x65, 0x6c, 0x75, 0x3b, 0x53, 0x74, 0x61, 0x74, 0x65, 0x66, 0x75, 0x6c,
  0x50, 0x61, 0x72, 0x74, 0x69, 0x74, 0x69, 0x6f, 0x6e, 0x65, 0x64, 0x43,
  0x61, 0x6c, 0x6c, 0x2f, 0x73, 0x65, 0x71, 0x75, 0x65, 0x6e, 0x74, 0x69,
  0x61, 0x6c, 0x2f, 0x64, 0x65, 0x6e, 0x73, 0x65, 0x5f, 0x31, 0x2f, 0x52,
  0x65, 0x6c, 0x75, 0x3b, 0x73, 0x65, 0x71, 0x75, 0x65, 0x6e, 0x74, 0x69,
  0x61, 0x6c, 0x2f, 0x64, 0x65, 0x6e, 0x73, 0x65, 0x5f, 0x31, 0x2f, 0x42,
  0x69, 0x61, 0x73, 0x41, 0x64, 0x64, 0x3b, 0x53, 0x74, 0x61, 0x74, 0x65,
  0x66, 0x75, 0x6c, 0x50, 0x61, 0x72, 0x74, 0x69, 0x74, 0x69, 0x6f, 0x6e,
  0x65, 0x64, 0x43, 0x61, 0x6c, 0x6c, 0x2f, 0x73, 0x65, 0x71, 0x75, 0x65,
  0x6e, 0x74, 0x69, 0x61, 0x6c, 0x2f, 0x64, 0x65, 0x6e, 0x73, 0x65, 0x5f,
  0x31, 0x2f, 0x42, 0x69, 0x61, 0x73, 0x41, 0x64, 0x64, 0x00, 0x00, 0x00,
  0x40, 0xf9, 0xff, 0xff, 0x00, 0x00, 0x0e, 0x00, 0x16, 0x00, 0x00, 0x00,
  0x08, 0x00, 0x0c, 0x00, 0x07, 0x00, 0x10, 0x00, 0x0e, 0x00, 0x00, 0x00,
  0x00, 0x00, 0x00, 0x08, 0x24, 0x00, 0x00, 0x00, 0x18, 0x00, 0x00, 0x00,
  0x0c, 0x00, 0x00, 0x00, 0x00, 0x00, 0x06, 0x00, 0x08, 0x00, 0x07, 0x00,
  0x06, 0x00, 0x00, 0x00, 0x00, 0x00, 0x00, 0x01, 0x01, 0x00, 0x00, 0x00,
  0x07, 0x00, 0x00, 0x00, 0x03, 0x00, 0x00, 0x00, 0x00, 0x00, 0x00, 0x00,
  0x04, 0x00, 0x00, 0x00, 0x01, 0x00, 0x00, 0x00, 0x00, 0x00, 0x0a, 0x00,
  0x0c, 0x00, 0x07, 0x00, 0x00, 0x00, 0x08, 0x00, 0x0a, 0x00, 0x00, 0x00,
  0x00, 0x00, 0x00, 0x09, 0x01, 0x00, 0x00, 0x00, 0x9e, 0xf9, 0xff, 0xff,
  0x10, 0x00, 0x00, 0x00, 0x08, 0x00, 0x00, 0x00, 0x14, 0x00, 0x00, 0x00,
  0xa4, 0x00, 0x00, 0x00, 0x02, 0x00, 0x00, 0x00, 0x01, 0x00, 0x00, 0x00,
  0x08, 0x00, 0x00, 0x00, 0x8d, 0x00, 0x00, 0x00, 0x73, 0x65, 0x71, 0x75,
  0x65, 0x6e, 0x74, 0x69, 0x61, 0x6c, 0x2f, 0x64, 0x65, 0x6e, 0x73, 0x65,
  0x2f, 0x52, 0x65, 0x6c, 0x75, 0x3b, 0x53, 0x74, 0x61, 0x74, 0x65, 0x66,
  0x75, 0x6c, 0x50, 0x61, 0x72, 0x74, 0x69, 0x74, 0x69, 0x6f, 0x6e, 0x65,
  0x64, 0x43, 0x61, 0x6c, 0x6c, 0x2f, 0x73, 0x65, 0x71, 0x75, 0x65, 0x6e,
  0x74, 0x69, 0x61, 0x6c, 0x2f, 0x64, 0x65, 0x6e, 0x73, 0x65, 0x2f, 0x52,
  0x65, 0x6c, 0x75, 0x3b, 0x73, 0x65, 0x71, 0x75, 0x65, 0x6e, 0x74, 0x69,
  0x61, 0x6c, 0x2f, 0x64, 0x65, 0x6e, 0x73, 0x65, 0x2f, 0x42, 0x69, 0x61,
  0x73, 0x41, 0x64, 0x64, 0x3b, 0x53, 0x74, 0x61, 0x74, 0x65, 0x66, 0x75,
  0x6c, 0x50, 0x61, 0x72, 0x74, 0x69, 0x74, 0x69, 0x6f, 0x6e, 0x65, 0x64,
  0x43, 0x61, 0x6c, 0x6c, 0x2f, 0x73, 0x65, 0x71, 0x75, 0x65, 0x6e, 0x74,
  0x69, 0x61, 0x6c, 0x2f, 0x64, 0x65, 0x6e, 0x73, 0x65, 0x2f, 0x42, 0x69,
  0x61, 0x73, 0x41, 0x64, 0x64, 0x00, 0x00, 0x00, 0x10, 0xfa, 0xff, 0xff,
  0xbe, 0xfa, 0xff, 0xff, 0x04, 0x00, 0x00, 0x00, 0x30, 0x00, 0x00, 0x00,
  0x16, 0x30, 0x97, 0x3f, 0x24, 0xc6, 0x4c, 0xc0, 0x80, 0x69, 0x30, 0xc0,
  0x32, 0xee, 0x25, 0x40, 0xc8, 0x3d, 0x0a, 0x40, 0x0b, 0xf8, 0x42, 0xbf,
  0xbf, 0xbd, 0xa9, 0x3f, 0x41, 0xaf, 0x28, 0xc0, 0xd3, 0x31, 0x84, 0xc0,
  0xcf, 0x2b, 0xcf, 0x3f, 0xed, 0xf3, 0x56, 0x3f, 0x72, 0xa4, 0x2f, 0xbf,
  0x92, 0xfa, 0xff, 0xff, 0x10, 0x00, 0x00, 0x00, 0x07, 0x00, 0x00, 0x00,
  0x14, 0x00, 0x00, 0x00, 0x60, 0x00, 0x00, 0x00, 0x02, 0x00, 0x00, 0x00,
  0x03, 0x00, 0x00, 0x00, 0x04, 0x00, 0x00, 0x00, 0x49, 0x00, 0x00, 0x00,
  0x73, 0x65, 0x71, 0x75, 0x65, 0x6e, 0x74, 0x69, 0x61, 0x6c, 0x2f, 0x79,
  0x5f, 0x70, 0x72, 0x65, 0x64, 0x2f, 0x4d, 0x61, 0x74, 0x4d, 0x75, 0x6c,
  0x3b, 0x53, 0x74, 0x61, 0x74, 0x65, 0x66, 0x75, 0x6c, 0x50, 0x61, 0x72,
  0x74, 0x69, 0x74, 0x69, 0x6f, 0x6e, 0x65, 0x64, 0x43, 0x61, 0x6c, 0x6c,
  0x2f, 0x73, 0x65, 0x71, 0x75, 0x65, 0x6e, 0x74, 0x69, 0x61, 0x6c, 0x2f,
  0x79, 0x5f, 0x70, 0x72, 0x65, 0x64, 0x2f, 0x4d, 0x61, 0x74, 0x4d, 0x75,
  0x6c, 0x00, 0x00, 0x00, 0xc0, 0xfa, 0xff, 0xff, 0x6e, 0xfb, 0xff, 0xff,
  0x04, 0x00, 0x00, 0x00, 0x80, 0x00, 0x00, 0x00, 0x52, 0x27, 0xdd, 0xbe,
  0xf0, 0xf6, 0xcf, 0x3d, 0x23, 0x04, 0xea, 0xbe, 0x51, 0x38, 0x32, 0x40,
  0xd3, 0x64, 0x84, 0xbe, 0xd0, 0x48, 0xea, 0x3f, 0x6c, 0xa3, 0xbb, 0xbe,
  0x20, 0xef, 0x43, 0x3d, 0xf4, 0x27, 0xe3, 0xbe, 0xa6, 0x71, 0xd2, 0x3e,
  0xb4, 0xfa, 0x3c, 0xbe, 0x99, 0x66, 0xe0, 0xbf, 0x11, 0xae, 0x18, 0x40,
  0x27, 0x99, 0x91, 0xbf, 0x4b, 0x58, 0x0a, 0xbf, 0x7c, 0x15, 0x13, 0x3e,
  0x4b, 0x1f, 0x08, 0xbf, 0xb3, 0x2f, 0x0a, 0x3f, 0x58, 0x7e, 0x7d, 0xbc,
  0x78, 0xe7, 0x94, 0xbe, 0xce, 0x2e, 0xa9, 0x3f, 0xf5, 0xfd, 0x43, 0x3f,
  0x68, 0xd9, 0x9f, 0x3d, 0xe8, 0x09, 0xf2, 0x3d, 0xda, 0x7a, 0xe5, 0xbe,
  0xdd, 0xe0, 0xbd, 0xbe, 0xd8, 0xc2, 0xca, 0x3d, 0x34, 0xe1, 0xed, 0x3f,
  0xff, 0x77, 0xc4, 0xbe, 0x64, 0x52, 0xdf, 0xbf, 0x26, 0xca, 0xc1, 0xbe,
  0x82, 0x07, 0x87, 0x3e, 0x92, 0xfb, 0xff, 0xff, 0x10, 0x00, 0x00, 0x00,
  0x06, 0x00, 0x00, 0x00, 0x14, 0x00, 0x00, 0x00, 0x60, 0x00, 0x00, 0x00,
  0x02, 0x00, 0x00, 0x00, 0x04, 0x00, 0x00, 0x00, 0x08, 0x00, 0x00, 0x00,
  0x4b, 0x00, 0x00, 0x00, 0x73, 0x65, 0x71, 0x75, 0x65, 0x6e, 0x74, 0x69,
  0x61, 0x6c, 0x2f, 0x64, 0x65, 0x6e, 0x73, 0x65, 0x5f, 0x31, 0x2f, 0x4d,
  0x61, 0x74, 0x4d, 0x75, 0x6c, 0x3b, 0x53, 0x74, 0x61, 0x74, 0x65, 0x66,
  0x75, 0x6c, 0x50, 0x61, 0x72, 0x74, 0x69, 0x74, 0x69, 0x6f, 0x6e, 0x65,
  0x64, 0x43, 0x61, 0x6c, 0x6c, 0x2f, 0x73, 0x65, 0x71, 0x75, 0x65, 0x6e,
  0x74, 0x69, 0x61, 0x6c, 0x2f, 0x64, 0x65, 0x6e, 0x73, 0x65, 0x5f, 0x31,
  0x2f, 0x4d, 0x61, 0x74, 0x4d, 0x75, 0x6c, 0x00, 0xc0, 0xfb, 0xff, 0xff,
  0x6e, 0xfc, 0xff, 0xff, 0x04, 0x00, 0x00, 0x00, 0x80, 0x02, 0x00, 0x00,
  0xa4, 0xa6, 0xad, 0xbe, 0x94, 0x08, 0x10, 0x3e, 0xe8, 0xed, 0xaf, 0xbe,
  0x42, 0xaa, 0x83, 0x3e, 0xae, 0x4c, 0x9f, 0x3e, 0x10, 0x18, 0x8d, 0xbe,
  0x9c, 0xfa, 0x2c, 0x3e, 0x0c, 0xc9, 0x8b, 0x3e, 0x6a, 0xea, 0x92, 0x3e,
  0x56, 0x28, 0x85, 0xbe, 0x08, 0xd1, 0x9a, 0xbd, 0x46, 0xa2, 0x91, 0x3e,
  0x40, 0x85, 0x9b, 0xbc, 0x1a, 0x08, 0xd1, 0x3e, 0xa4, 0xa5, 0x16, 0xbe,
  0x99, 0x73, 0xc6, 0xbe, 0xf0, 0x63, 0x16, 0xbe, 0xa8, 0x05, 0x4d, 0xbd,
  0xe4, 0xdd, 0x36, 0xbe, 0x86, 0x24, 0x4c, 0xbe, 0xa8, 0xa7, 0x80, 0x3d,
  0xc0, 0xe5, 0xb4, 0xbc, 0xf8, 0x7a, 0x4f, 0xbe, 0xfe, 0xa8, 0x84, 0xbe,
  0x80, 0x8e, 0xe3, 0x3d, 0xc0, 0xb0, 0xbe, 0x3b, 0x20, 0x65, 0x2c, 0x3d,
  0xad, 0x51, 0xde, 0xbe, 0xac, 0x02, 0x9b, 0xbd, 0xfc, 0xf5, 0x9c, 0x3e,
  0xe0, 0x90, 0xc2, 0x3d, 0x3c, 0xec, 0xcb, 0xbe, 0xc2, 0x47, 0xcf, 0x3e,
  0xa4, 0x17, 0x2f, 0x3e, 0x4c, 0x77, 0xe4, 0xbd, 0x5c, 0x3d, 0x95, 0x3e,
  0x48, 0xf3, 0x14, 0xbd, 0xc8, 0x49, 0x9c, 0x3d, 0x24, 0x7e, 0x1d, 0x3e,
  0x5c, 0x5e, 0xb8, 0xbd, 0xbc, 0x49, 0x39, 0xbc, 0xd7, 0xd2, 0xbf, 0xbe,
  0xf5, 0x01, 0xa2, 0xbe, 0xa2, 0x48, 0xcf, 0x3e, 0xa7, 0xba, 0xec, 0xbe,
  0x07, 0x9e, 0xbc, 0xbe, 0x97, 0xe2, 0xe2, 0xbe, 0xbe, 0x7c, 0xb8, 0x3e,
  0x4b, 0xe8, 0x31, 0xbe, 0xd0, 0xfd, 0x65, 0xbe, 0xb4, 0xe6, 0x0c, 0xbc,
  0x20, 0x87, 0xd8, 0x3e, 0x42, 0x21, 0x89, 0x3e, 0x9a, 0x27, 0x02, 0x3e,
  0xac, 0x9f, 0x27, 0xbe, 0x98, 0xa4, 0xe3, 0xbe, 0xf0, 0xc4, 0x0e, 0x3e,
  0x40, 0x97, 0x94, 0xbc, 0x1d, 0xbd, 0xe4, 0xbd, 0x99, 0x7c, 0x8d, 0x3e,
  0x77, 0x8e, 0x05, 0xbf, 0x76, 0x76, 0xa3, 0x3e, 0x18, 0x2a, 0x60, 0xbe,
  0x7e, 0xe3, 0xbd, 0x3e, 0xd2, 0x97, 0x4a, 0xbf, 0x3d, 0x55, 0xca, 0xbf,
  0xd2, 0x24, 0xa1, 0xbf, 0x6e, 0x21, 0x63, 0xbf, 0xf8, 0x63, 0xa9, 0xbf,
  0x18, 0xea, 0xe8, 0x3e, 0x47, 0x80, 0xd0, 0x3f, 0x15, 0x4f, 0xc6, 0x3f,
  0xee, 0x1e, 0xce, 0x3f, 0xef, 0x00, 0xf7, 0x3f, 0xed, 0x00, 0x16, 0x40,
  0xc0, 0x92, 0x39, 0xbf, 0x53, 0xc3, 0x85, 0xbe, 0x3e, 0x16, 0xdb, 0xbe,
  0x89, 0x05, 0x55, 0xbf, 0x8e, 0xfd, 0x09, 0xbf, 0xc4, 0x5d, 0x81, 0x3e,
  0x69, 0xc2, 0xce, 0x3e, 0xf2, 0x57, 0x56, 0xbd, 0xe9, 0x4c, 0xde, 0x3e,
  0xe1, 0x47, 0x38, 0x40, 0x44, 0x27, 0x87, 0x3f, 0xec, 0x2d, 0xb8, 0x3f,
  0xdf, 0xe7, 0xaf, 0x3f, 0x42, 0x7d, 0x64, 0x3f, 0x84, 0x77, 0x95, 0xbe,
  0x45, 0xf7, 0x36, 0x3e, 0x34, 0x0f, 0xb9, 0x3e, 0x03, 0x53, 0xc3, 0x3d,
  0x48, 0x41, 0x7a, 0x3e, 0x32, 0xbb, 0xa2, 0x3f, 0x0d, 0xae, 0x80, 0x3f,
  0xc4, 0xb8, 0xb5, 0x3f, 0x49, 0xea, 0x89, 0x3f, 0xa5, 0xe6, 0xa1, 0x3f,
  0xeb, 0x62, 0x23, 0x40, 0x18, 0x6d, 0x19, 0x3e, 0x26, 0x5a, 0x0b, 0xbd,
  0xfe, 0x18, 0xdb, 0x3c, 0x89, 0x36, 0x00, 0x3c, 0xb2, 0xa6, 0xa4, 0x3f,
  0x4f, 0xf2, 0x56, 0xbf, 0xbb, 0xc4, 0x66, 0xbf, 0x10, 0xbf, 0x65, 0xbf,
  0xdd, 0x67, 0x07, 0xbf, 0x0a, 0x7a, 0x31, 0xbe, 0xea, 0x70, 0xa8, 0x3f,
  0x95, 0x06, 0xab, 0x3f, 0x2b, 0x97, 0xe6, 0x3f, 0x89, 0x02, 0xa7, 0x3f,
  0xbd, 0xd7, 0x35, 0x40, 0xa2, 0x43, 0x7e, 0x3e, 0xb9, 0x84, 0xa6, 0x3e,
  0x4a, 0x91, 0x0c, 0x3f, 0xf2, 0x0c, 0x16, 0xbd, 0x3d, 0x82, 0x26, 0x40,
  0x49, 0x3a, 0xaf, 0xbe, 0x30, 0xa2, 0x8a, 0xbe, 0x95, 0x76, 0xe6, 0xbe,
  0xd5, 0x33, 0xc2, 0xbe, 0xf4, 0x4a, 0xc6, 0xbd, 0x58, 0xef, 0x6b, 0xbd,
  0xb8, 0xec, 0xe8, 0x3e, 0xf8, 0xf4, 0x44, 0x3e, 0x1c, 0xe7, 0xaf, 0xbe,
  0x50, 0xac, 0xcc, 0x3e, 0x10, 0x0c, 0x35, 0xbe, 0xbc, 0x24, 0x5e, 0x3e,
  0x08, 0xd0, 0xd2, 0x3d, 0x38, 0x93, 0x1e, 0xbe, 0x1c, 0xbd, 0x31, 0x3e,
  0x24, 0x59, 0x09, 0x3e, 0xa0, 0xa1, 0x6e, 0x3e, 0xd8, 0x52, 0xde, 0xbd,
  0xa0, 0xbb, 0x72, 0xbc, 0x96, 0x42, 0x9f, 0xbe, 0xf6, 0xd7, 0x1b, 0xbe,
  0x0b, 0x4f, 0x90, 0xbe, 0x48, 0xcb, 0xfc, 0xbd, 0x94, 0x9d, 0x7f, 0x3e,
  0x98, 0xb0, 0x55, 0x3e, 0xfc, 0x1d, 0x9e, 0xbe, 0x1c, 0xe1, 0x10, 0xbe,
  0x8c, 0x21, 0x43, 0x3e, 0xa8, 0xb1, 0xa6, 0xbd, 0x48, 0xb2, 0x5d, 0x3e,
  0x39, 0xc4, 0xc0, 0xbe, 0x38, 0xc9, 0xe5, 0xbd, 0x6c, 0xaf, 0x08, 0x3e,
  0xda, 0x2b, 0xe6, 0x3e, 0x40, 0x5e, 0x69, 0xbc, 0x98, 0x96, 0x88, 0x3d,
  0x1c, 0x55, 0x8d, 0xbe, 0xc8, 0x2d, 0x90, 0x3d, 0xee, 0xb2, 0xa3, 0x3e,
  0x44, 0x13, 0xc9, 0xbe, 0x92, 0xfe, 0xff, 0xff, 0x10, 0x00, 0x00, 0x00,
  0x05, 0x00, 0x00, 0x00, 0x14, 0x00, 0x00, 0x00, 0x5c, 0x00, 0x00, 0x00,
  0x02, 0x00, 0x00, 0x00, 0x08, 0x00, 0x00, 0x00, 0x14, 0x00, 0x00, 0x00,
  0x47, 0x00, 0x00, 0x00, 0x73, 0x65, 0x71, 0x75, 0x65, 0x6e, 0x74, 0x69,
  0x61, 0x6c, 0x2f, 0x64, 0x65, 0x6e, 0x73, 0x65, 0x2f, 0x4d, 0x61, 0x74,
  0x4d, 0x75, 0x6c, 0x3b, 0x53, 0x74, 0x61, 0x74, 0x65, 0x66, 0x75, 0x6c,
  0x50, 0x61, 0x72, 0x74, 0x69, 0x74, 0x69, 0x6f, 0x6e, 0x65, 0x64, 0x43,
  0x61, 0x6c, 0x6c, 0x2f, 0x73, 0x65, 0x71, 0x75, 0x65, 0x6e, 0x74, 0x69,
  0x61, 0x6c, 0x2f, 0x64, 0x65, 0x6e, 0x73, 0x65, 0x2f, 0x4d, 0x61, 0x74,
  0x4d, 0x75, 0x6c, 0x00, 0xbc, 0xfe, 0xff, 0xff, 0x6a, 0xff, 0xff, 0xff,
  0x04, 0x00, 0x00, 0x00, 0x0c, 0x00, 0x00, 0x00, 0xb2, 0x85, 0xa6, 0x3f,
  0xa8, 0x53, 0xc7, 0xbf, 0x2d, 0x97, 0x9e, 0xbe, 0x1a, 0xff, 0xff, 0xff,
  0x10, 0x00, 0x00, 0x00, 0x04, 0x00, 0x00, 0x00, 0x10, 0x00, 0x00, 0x00,
  0x1c, 0x00, 0x00, 0x00, 0x01, 0x00, 0x00, 0x00, 0x03, 0x00, 0x00, 0x00,
  0x09, 0x00, 0x00, 0x00, 0x75, 0x6e, 0x6b, 0x6e, 0x6f, 0x77, 0x6e, 0x5f,
  0x34, 0x00, 0x00, 0x00, 0x04, 0xff, 0xff, 0xff, 0xb2, 0xff, 0xff, 0xff,
  0x04, 0x00, 0x00, 0x00, 0x10, 0x00, 0x00, 0x00, 0x85, 0x34, 0x7f, 0xbe,
  0x97, 0xce, 0x67, 0xbe, 0x99, 0xcc, 0x2c, 0xbf, 0x78, 0xa2, 0x9e, 0x3f,
  0x66, 0xff, 0xff, 0xff, 0x10, 0x00, 0x00, 0x00, 0x03, 0x00, 0x00, 0x00,
  0x10, 0x00, 0x00, 0x00, 0x1c, 0x00, 0x00, 0x00, 0x01, 0x00, 0x00, 0x00,
  0x04, 0x00, 0x00, 0x00, 0x09, 0x00, 0x00, 0x00, 0x75, 0x6e, 0x6b, 0x6e,
  0x6f, 0x77, 0x6e, 0x5f, 0x32, 0x00, 0x00, 0x00, 0x9c, 0xff, 0xff, 0xff,
  0x00, 0x00, 0x06, 0x00, 0x08, 0x00, 0x04, 0x00, 0x06, 0x00, 0x00, 0x00,
  0x04, 0x00, 0x00, 0x00, 0x20, 0x00, 0x00, 0x00, 0x00, 0x00, 0x00, 0x00,
  0x00, 0x00, 0x00, 0x00, 0x94, 0xb5, 0x01, 0xbc, 0xd3, 0xbb, 0xc3, 0x3e,
  0x5d, 0x38, 0x07, 0xbf, 0xbc, 0x5e, 0x75, 0xbe, 0x00, 0x00, 0x00, 0x00,
  0x00, 0x00, 0x00, 0x00, 0xca, 0xff, 0xff, 0xff, 0x10, 0x00, 0x00, 0x00,
  0x02, 0x00, 0x00, 0x00, 0x10, 0x00, 0x00, 0x00, 0x20, 0x00, 0x00, 0x00,
  0x01, 0x00, 0x00, 0x00, 0x08, 0x00, 0x00, 0x00, 0x09, 0x00, 0x00, 0x00,
  0x75, 0x6e, 0x6b, 0x6e, 0x6f, 0x77, 0x6e, 0x5f, 0x30, 0x00, 0x00, 0x00,
  0x04, 0x00, 0x06, 0x00, 0x04, 0x00, 0x00, 0x00, 0x00, 0x00, 0x0e, 0x00,
  0x14, 0x00, 0x04, 0x00, 0x00, 0x00, 0x08, 0x00, 0x0c, 0x00, 0x10, 0x00,
  0x0e, 0x00, 0x00, 0x00, 0x10, 0x00, 0x00, 0x00, 0x01, 0x00, 0x00, 0x00,
  0x14, 0x00, 0x00, 0x00, 0x20, 0x00, 0x00, 0x00, 0x02, 0x00, 0x00, 0x00,
  0x01, 0x00, 0x00, 0x00, 0x14, 0x00, 0x00, 0x00, 0x0b, 0x00, 0x00, 0x00,
  0x64, 0x65, 0x6e, 0x73, 0x65, 0x5f, 0x69, 0x6e, 0x70, 0x75, 0x74, 0x00,
  0xfc, 0xff, 0xff, 0xff, 0x04, 0x00, 0x04, 0x00, 0x04, 0x00, 0x00, 0x00
};
unsigned int trained_tflite_len = 2724;
