const unsigned char trained_tflite[] = {
  0x1c, 0x00, 0x00, 0x00, 0x54, 0x46, 0x4c, 0x33, 0x00, 0x00, 0x12, 0x00,
  0x1c, 0x00, 0x04, 0x00, 0x08, 0x00, 0x0c, 0x00, 0x10, 0x00, 0x14, 0x00,
  0x00, 0x00, 0x18, 0x00, 0x12, 0x00, 0x00, 0x00, 0x03, 0x00, 0x00, 0x00,
  0x14, 0x00, 0x00, 0x00, 0x1c, 0x00, 0x00, 0x00, 0xa8, 0x00, 0x00, 0x00,
  0x1c, 0x00, 0x00, 0x00, 0x50, 0x00, 0x00, 0x00, 0x02, 0x00, 0x00, 0x00,
  0xb0, 0x03, 0x00, 0x00, 0x6c, 0x01, 0x00, 0x00, 0x01, 0x00, 0x00, 0x00,
  0xb0, 0x00, 0x00, 0x00, 0x0d, 0x00, 0x00, 0x00, 0x40, 0x11, 0x00, 0x00,
  0x3c, 0x11, 0x00, 0x00, 0x60, 0x10, 0x00, 0x00, 0xf0, 0x0f, 0x00, 0x00,
  0xa4, 0x0f, 0x00, 0x00, 0xe4, 0x08, 0x00, 0x00, 0x40, 0x05, 0x00, 0x00,
  0x44, 0x04, 0x00, 0x00, 0x20, 0x11, 0x00, 0x00, 0x1c, 0x11, 0x00, 0x00,
  0x18, 0x11, 0x00, 0x00, 0x14, 0x11, 0x00, 0x00, 0x38, 0x00, 0x00, 0x00,
  0x01, 0x00, 0x00, 0x00, 0x0c, 0x00, 0x00, 0x00, 0x08, 0x00, 0x0c, 0x00,
  0x04, 0x00, 0x08, 0x00, 0x08, 0x00, 0x00, 0x00, 0x08, 0x00, 0x00, 0x00,
  0x0c, 0x00, 0x00, 0x00, 0x13, 0x00, 0x00, 0x00, 0x6d, 0x69, 0x6e, 0x5f,
  0x72, 0x75, 0x6e, 0x74, 0x69, 0x6d, 0x65, 0x5f, 0x76, 0x65, 0x72, 0x73,
  0x69, 0x6f, 0x6e, 0x00, 0x06, 0xf0, 0xff, 0xff, 0x04, 0x00, 0x00, 0x00,
  0x10, 0x00, 0x00, 0x00, 0x31, 0x2e, 0x35, 0x2e, 0x30, 0x00, 0x00, 0x00,
  0x00, 0x00, 0x00, 0x00, 0x00, 0x00, 0x00, 0x00, 0x0f, 0x00, 0x00, 0x00,
  0x4d, 0x4c, 0x49, 0x52, 0x20, 0x43, 0x6f, 0x6e, 0x76, 0x65, 0x72, 0x74,
  0x65, 0x64, 0x2e, 0x00, 0x00, 0x00, 0x0e, 0x00, 0x18, 0x00, 0x04, 0x00,
  0x08, 0x00, 0x0c, 0x00, 0x10, 0x00, 0x14, 0x00, 0x0e, 0x00, 0x00, 0x00,
  0x14, 0x00, 0x00, 0x00, 0x40, 0x00, 0x00, 0x00, 0x44, 0x00, 0x00, 0x00,
  0x48, 0x00, 0x00, 0x00, 0x58, 0x00, 0x00, 0x00, 0x0b, 0x00, 0x00, 0x00,
  0x44, 0x10, 0x00, 0x00, 0xfc, 0x0f, 0x00, 0x00, 0x64, 0x0f, 0x00, 0x00,
  0xfc, 0x0e, 0x00, 0x00, 0x70, 0x0e, 0x00, 0x00, 0xac, 0x07, 0x00, 0x00,
  0x08, 0x04, 0x00, 0x00, 0xc8, 0x02, 0x00, 0x00, 0xa0, 0x01, 0x00, 0x00,
  0xe4, 0x00, 0x00, 0x00, 0x7c, 0x00, 0x00, 0x00, 0x01, 0x00, 0x00, 0x00,
  0x00, 0x00, 0x00, 0x00, 0x01, 0x00, 0x00, 0x00, 0x0a, 0x00, 0x00, 0x00,
  0x04, 0x00, 0x00, 0x00, 0x50, 0x02, 0x00, 0x00, 0x48, 0x01, 0x00, 0x00,
  0x90, 0x00, 0x00, 0x00, 0x1c, 0x00, 0x00, 0x00, 0x04, 0x00, 0x00, 0x00,
  0x6d, 0x61, 0x69, 0x6e, 0x00, 0x00, 0x0e, 0x00, 0x18, 0x00, 0x08, 0x00,
  0x0c, 0x00, 0x10, 0x00, 0x07, 0x00, 0x14, 0x00, 0x0e, 0x00, 0x00, 0x00,
  0x00, 0x00, 0x00, 0x09, 0x01, 0x00, 0x00, 0x00, 0x1c, 0x00, 0x00, 0x00,
  0x10, 0x00, 0x00, 0x00, 0x04, 0x00, 0x00, 0x00, 0xe2, 0xf0, 0xff, 0xff,
  0x00, 0x00, 0x80, 0x3f, 0x01, 0x00, 0x00, 0x00, 0x0a, 0x00, 0x00, 0x00,
  0x01, 0x00, 0x00, 0x00, 0x09, 0x00, 0x00, 0x00, 0xca, 0xfd, 0xff, 0xff,
  0x00, 0x00, 0x00, 0x19, 0x01, 0x00, 0x00, 0x00, 0x6e, 0xf0, 0xff, 0xff,
  0x10, 0x00, 0x00, 0x00, 0x0b, 0x00, 0x00, 0x00, 0x14, 0x00, 0x00, 0x00,
  0x20, 0x00, 0x00, 0x00, 0x02, 0x00, 0x00, 0x00, 0x01, 0x00, 0x00, 0x00,
  0x03, 0x00, 0x00, 0x00, 0x08, 0x00, 0x00, 0x00, 0x49, 0x64, 0x65, 0x6e,
  0x74, 0x69, 0x74, 0x79, 0x00, 0x00, 0x00, 0x00, 0x5c, 0xf0, 0xff, 0xff,
  0x5a, 0xff, 0xff, 0xff, 0x00, 0x00, 0x00, 0x08, 0x18, 0x00, 0x00, 0x00,
  0x0c, 0x00, 0x00, 0x00, 0x04, 0x00, 0x00, 0x00, 0x74, 0xf0, 0xff, 0xff,
  0x01, 0x00, 0x00, 0x00, 0x09, 0x00, 0x00, 0x00, 0x03, 0x00, 0x00, 0x00,
  0x08, 0x00, 0x00, 0x00, 0x06, 0x00, 0x00, 0x00, 0x03, 0x00, 0x00, 0x00,
  0xd2, 0xf0, 0xff, 0xff, 0x10, 0x00, 0x00, 0x00, 0x0a, 0x00, 0x00, 0x00,
  0x14, 0x00, 0x00, 0x00, 0x60, 0x00, 0x00, 0x00, 0x02, 0x00, 0x00, 0x00,
  0x01, 0x00, 0x00, 0x00, 0x03, 0x00, 0x00, 0x00, 0x4b, 0x00, 0x00, 0x00,
  0x73, 0x65, 0x71, 0x75, 0x65, 0x6e, 0x74, 0x69, 0x61, 0x6c, 0x2f, 0x79,
  0x5f, 0x70, 0x72, 0x65, 0x64, 0x2f, 0x42, 0x69, 0x61, 0x73, 0x41, 0x64,
  0x64, 0x3b, 0x53, 0x74, 0x61, 0x74, 0x65, 0x66, 0x75, 0x6c, 0x50, 0x61,
  0x72, 0x74, 0x69, 0x74, 0x69, 0x6f, 0x6e, 0x65, 0x64, 0x43, 0x61, 0x6c,
  0x6c, 0x2f, 0x73, 0x65, 0x71, 0x75, 0x65, 0x6e, 0x74, 0x69, 0x61, 0x6c,
  0x2f, 0x79, 0x5f, 0x70, 0x72, 0x65, 0x64, 0x2f, 0x42, 0x69, 0x61, 0x73,
  0x41, 0x64, 0x64, 0x00, 0x4c, 0xf1, 0xff, 0xff, 0x00, 0x00, 0x0e, 0x00,
  0x14, 0x00, 0x00, 0x00, 0x08, 0x00, 0x0c, 0x00, 0x07, 0x00, 0x10, 0x00,
  0x0e, 0x00, 0x00, 0x00, 0x00, 0x00, 0x00, 0x08, 0x1c, 0x00, 0x00, 0x00,
  0x10, 0x00, 0x00, 0x00, 0x04, 0x00, 0x00, 0x00, 0xfa, 0xfe, 0xff, 0xff,
  0x00, 0x00, 0x00, 0x01, 0x01, 0x00, 0x00, 0x00, 0x08, 0x00, 0x00, 0x00,
  0x03, 0x00, 0x00, 0x00, 0x07, 0x00, 0x00, 0x00, 0x05, 0x00, 0x00, 0x00,
  0x02, 0x00, 0x00, 0x00, 0x8a, 0xf1, 0xff, 0xff, 0x10, 0x00, 0x00, 0x00,
  0x09, 0x00, 0x00, 0x00, 0x14, 0x00, 0x00, 0x00, 0xac, 0x00, 0x00, 0x00,
  0x02, 0x00, 0x00, 0x00, 0x01, 0x00, 0x00, 0x00, 0x0a, 0x00, 0x00, 0x00,
  0x95, 0x00, 0x00, 0x00, 0x73, 0x65, 0x71, 0x75, 0x65, 0x6e, 0x74, 0x69,
  0x61, 0x6c, 0x2f, 0x64, 0x65, 0x6e, 0x73, 0x65, 0x5f, 0x31, 0x2f, 0x52,
  0x65, 0x6c, 0x75, 0x3b, 0x53, 0x74, 0x61, 0x74, 0x65, 0x66, 0x75, 0x6c,
  0x50, 0x61, 0x72, 0x74, 0x69, 0x74, 0x69, 0x6f, 0x6e, 0x65, 0x64, 0x43,
  0x61, 0x6c, 0x6c, 0x2f, 0x73, 0x65, 0x71, 0x75, 0x65, 0x6e, 0x74, 0x69,
  0x61, 0x6c, 0x2f, 0x64, 0x65, 0x6e, 0x73, 0x65, 0x5f, 0x31, 0x2f, 0x52,
  0x65, 0x6c, 0x75, 0x3b, 0x73, 0x65, 0x71, 0x75, 0x65, 0x6e, 0x74, 0x69,
  0x61, 0x6c, 0x2f, 0x64, 0x65, 0x6e, 0x73, 0x65, 0x5f, 0x31, 0x2f, 0x42,
  0x69, 0x61, 0x73, 0x41, 0x64, 0x64, 0x3b, 0x53, 0x74, 0x61, 0x74, 0x65,
  0x66, 0x75, 0x6c, 0x50, 0x61, 0x72, 0x74, 0x69, 0x74, 0x69, 0x6f, 0x6e,
  0x65, 0x64, 0x43, 0x61, 0x6c, 0x6c, 0x2f, 0x73, 0x65, 0x71, 0x75, 0x65,
  0x6e, 0x74, 0x69, 0x61, 0x6c, 0x2f, 0x64, 0x65, 0x6e, 0x73, 0x65, 0x5f,
  0x31, 0x2f, 0x42, 0x69, 0x61, 0x73, 0x41, 0x64, 0x64, 0x00, 0x00, 0x00,
  0x50, 0xf2, 0xff, 0xff, 0x00, 0x00, 0x0e, 0x00, 0x16, 0x00, 0x00, 0x00,
  0x08, 0x00, 0x0c, 0x00, 0x07, 0x00, 0x10, 0x00, 0x0e, 0x00, 0x00, 0x00,
  0x00, 0x00, 0x00, 0x08, 0x24, 0x00, 0x00, 0x00, 0x18, 0x00, 0x00, 0x00,
  0x0c, 0x00, 0x00, 0x00, 0x00, 0x00, 0x06, 0x00, 0x08, 0x00, 0x07, 0x00,
  0x06, 0x00, 0x00, 0x00, 0x00, 0x00, 0x00, 0x01, 0x01, 0x00, 0x00, 0x00,
  0x07, 0x00, 0x00, 0x00, 0x03, 0x00, 0x00, 0x00, 0x00, 0x00, 0x00, 0x00,
  0x04, 0x00, 0x00, 0x00, 0x01, 0x00, 0x00, 0x00, 0x00, 0x00, 0x0a, 0x00,
  0x0c, 0x00, 0x07, 0x00, 0x00, 0x00, 0x08, 0x00, 0x0a, 0x00, 0x00, 0x00,
  0x00, 0x00, 0x00, 0x09, 0x01, 0x00, 0x00, 0x00, 0xae, 0xf2, 0xff, 0xff,
  0x10, 0x00, 0x00, 0x00, 0x08, 0x00, 0x00, 0x00, 0x14, 0x00, 0x00, 0x00,
  0xa4, 0x00, 0x00, 0x00, 0x02, 0x00, 0x00, 0x00, 0x01, 0x00, 0x00, 0x00,
  0x14, 0x00, 0x00, 0x00, 0x8d, 0x00, 0x00, 0x00, 0x73, 0x65, 0x71, 0x75,
  0x65, 0x6e, 0x74, 0x69, 0x61, 0x6c, 0x2f, 0x64, 0x65, 0x6e, 0x73, 0x65,
  0x2f, 0x52, 0x65, 0x6c, 0x75, 0x3b, 0x53, 0x74, 0x61, 0x74, 0x65, 0x66,
  0x75, 0x6c, 0x50, 0x61, 0x72, 0x74, 0x69, 0x74, 0x69, 0x6f, 0x6e, 0x65,
  0x64, 0x43, 0x61, 0x6c, 0x6c, 0x2f, 0x73, 0x65, 0x71, 0x75, 0x65, 0x6e,
  0x74, 0x69, 0x61, 0x6c, 0x2f, 0x64, 0x65, 0x6e, 0x73, 0x65, 0x2f, 0x52,
  0x65, 0x6c, 0x75, 0x3b, 0x73, 0x65, 0x71, 0x75, 0x65, 0x6e, 0x74, 0x69,
  0x61, 0x6c, 0x2f, 0x64, 0x65, 0x6e, 0x73, 0x65, 0x2f, 0x42, 0x69, 0x61,
  0x73, 0x41, 0x64, 0x64, 0x3b, 0x53, 0x74, 0x61, 0x74, 0x65, 0x66, 0x75,
  0x6c, 0x50, 0x61, 0x72, 0x74, 0x69, 0x74, 0x69, 0x6f, 0x6e, 0x65, 0x64,
  0x43, 0x61, 0x6c, 0x6c, 0x2f, 0x73, 0x65, 0x71, 0x75, 0x65, 0x6e, 0x74,
  0x69, 0x61, 0x6c, 0x2f, 0x64, 0x65, 0x6e, 0x73, 0x65, 0x2f, 0x42, 0x69,
  0x61, 0x73, 0x41, 0x64, 0x64, 0x00, 0x00, 0x00, 0x20, 0xf3, 0xff, 0xff,
  0xfe, 0xf3, 0xff, 0xff, 0x04, 0x00, 0x00, 0x00, 0x78, 0x00, 0x00, 0x00,
  0x01, 0xef, 0xaf, 0xbe, 0x71, 0x6b, 0x1a, 0xbf, 0x88, 0x99, 0x19, 0xbf,
  0xed, 0x28, 0x80, 0x3f, 0x6a, 0x6e, 0xa3, 0x3e, 0x7d, 0x40, 0x41, 0xbf,
  0xab, 0x94, 0x78, 0x3f, 0xf3, 0x1c, 0x8b, 0xbd, 0x84, 0x4c, 0x95, 0xbf,
  0x39, 0x28, 0x24, 0xbe, 0x05, 0xa4, 0x8c, 0x3f, 0xa0, 0x20, 0x73, 0xbd,
  0x08, 0xb9, 0x0e, 0x3f, 0x40, 0xca, 0x95, 0xbf, 0x59, 0x36, 0x99, 0x3e,
  0x9d, 0xb7, 0x0a, 0xbd, 0x8d, 0x48, 0x05, 0xbf, 0x8e, 0xfa, 0x67, 0x3f,
  0xe1, 0xde, 0x41, 0x3f, 0x16, 0xd6, 0xf4, 0xbc, 0xa2, 0x36, 0xbc, 0xbf,
  0xf0, 0xf3, 0x80, 0xbd, 0xe1, 0x32, 0x22, 0x3d, 0x2a, 0x7b, 0x22, 0x3f,
  0x96, 0xfd, 0xcd, 0x3e, 0xb3, 0x4a, 0x58, 0x3f, 0xbb, 0xb4, 0x13, 0xbf,
  0x0a, 0xc9, 0x25, 0xbf, 0xe3, 0x79, 0xfd, 0x3e, 0xf2, 0x15, 0x3f, 0xbe,
  0xea, 0xf3, 0xff, 0xff, 0x10, 0x00, 0x00, 0x00, 0x07, 0x00, 0x00, 0x00,
  0x14, 0x00, 0x00, 0x00, 0x60, 0x00, 0x00, 0x00, 0x02, 0x00, 0x00, 0x00,
  0x03, 0x00, 0x00, 0x00, 0x0a, 0x00, 0x00, 0x00, 0x49, 0x00, 0x00, 0x00,
  0x73, 0x65, 0x71, 0x75, 0x65, 0x6e, 0x74, 0x69, 0x61, 0x6c, 0x2f, 0x79,
  0x5f, 0x70, 0x72, 0x65, 0x64, 0x2f, 0x4d, 0x61, 0x74, 0x4d, 0x75, 0x6c,
  0x3b, 0x53, 0x74, 0x61, 0x74, 0x65, 0x66, 0x75, 0x6c, 0x50, 0x61, 0x72,
  0x74, 0x69, 0x74, 0x69, 0x6f, 0x6e, 0x65, 0x64, 0x43, 0x61, 0x6c, 0x6c,
  0x2f, 0x73, 0x65, 0x71, 0x75, 0x65, 0x6e, 0x74, 0x69, 0x61, 0x6c, 0x2f,
  0x79, 0x5f, 0x70, 0x72, 0x65, 0x64, 0x2f, 0x4d, 0x61, 0x74, 0x4d, 0x75,
  0x6c, 0x00, 0x00, 0x00, 0x18, 0xf4, 0xff, 0xff, 0xf6, 0xf4, 0xff, 0xff,
  0x04, 0x00, 0x00, 0x00, 0x20, 0x03, 0x00, 0x00, 0xac, 0xde, 0x8b, 0xbe,
  0x40, 0xa6, 0x65, 0xbc, 0xa8, 0xb6, 0xfb, 0x3d, 0x28, 0x14, 0x99, 0x3d,
  0x02, 0x18, 0x63, 0x3f, 0x1f, 0x46, 0x85, 0xbe, 0x94, 0x5b, 0xed, 0xbd,
  0x80, 0x9e, 0x99, 0x3d, 0xb0, 0xce, 0x74, 0xbf, 0xd5, 0x03, 0x24, 0xbf,
  0x12, 0x84, 0x0b, 0xbe, 0xf4, 0xc4, 0xaa, 0xbe, 0x73, 0xba, 0xbc, 0x3e,
  0x47, 0x18, 0x42, 0x3f, 0x08, 0x6f, 0xf6, 0xbd, 0x78, 0x5f, 0x10, 0xbe,
  0xd1, 0xed, 0x55, 0xbf, 0x20, 0xaf, 0x76, 0x3d, 0x5d, 0x13, 0x97, 0xbd,
  0x90, 0xc9, 0x91, 0x3e, 0x86, 0xaa, 0x8f, 0xbe, 0xc8, 0x3c, 0x80, 0x3d,
  0x5d, 0xc3, 0x5d, 0xbe, 0xd4, 0xcc, 0x2a, 0x3e, 0xc0, 0xad, 0xd8, 0x3d,
  0x58, 0x2c, 0x1c, 0x3d, 0x08, 0x9e, 0x99, 0x3e, 0x22, 0x90, 0x41, 0xbe,
  0xb0, 0x49, 0x1f, 0xbe, 0x86, 0x5d, 0x9f, 0xbe, 0x28, 0x9a, 0x8c, 0x3d,
  0x3e, 0x2f, 0xaa, 0xbe, 0x2c, 0xbb, 0xcf, 0xbd, 0x36, 0x5d, 0x06, 0xbe,
  0xeb, 0x7f, 0xa9, 0xbe, 0x72, 0x10, 0xbe, 0xbe, 0xce, 0xc5, 0x34, 0xbe,
  0x00, 0x80, 0x90, 0x3e, 0x1c, 0x95, 0x54, 0x3e, 0xfe, 0xa2, 0xbc, 0xbe,
  0xba, 0x2e, 0xac, 0xbe, 0xfc, 0x06, 0x98, 0x3e, 0x60, 0x9d, 0xd4, 0x3d,
  0x84, 0x86, 0x5e, 0xbe, 0x38, 0xa3, 0x82, 0x3e, 0xc0, 0xd0, 0xe9, 0xbb,
  0x60, 0x69, 0x38, 0x3e, 0x8e, 0x51, 0x42, 0xbe, 0xb8, 0x51, 0xa5, 0x3e,
  0x22, 0x97, 0x9d, 0x3e, 0xa4, 0xbf, 0x80, 0xbe, 0x01, 0x21, 0x57, 0xbe,
  0x18, 0x0b, 0x0c, 0x3e, 0x68, 0xb7, 0xd9, 0xbe, 0xd0, 0xfb, 0x09, 0x3e,
  0x3a, 0x98, 0x1f, 0xbe, 0xbf, 0x42, 0xec, 0xbd, 0x62, 0xab, 0xd7, 0x3e,
  0x1b, 0x31, 0xcc, 0xbe, 0xa4, 0xb6, 0xfe, 0xbd, 0xc6, 0x22, 0x91, 0xbe,
  0xdc, 0x43, 0xa1, 0xbd, 0x6d, 0x89, 0x85, 0xbe, 0x32, 0x44, 0xb4, 0xbe,
  0xfe, 0x72, 0xb4, 0xbd, 0x7c, 0xaa, 0x49, 0x3e, 0x1e, 0xf9, 0x8b, 0x3e,
  0x2e, 0x32, 0xa6, 0x3e, 0x94, 0x63, 0x81, 0x3f, 0x46, 0xf6, 0xa6, 0x3e,
  0xc0, 0x32, 0xa9, 0x3e, 0xd5, 0x2f, 0xc5, 0x3e, 0x80, 0x63, 0x00, 0x3c,
  0x7f, 0xc3, 0xfe, 0xbe, 0x08, 0xf1, 0xce, 0xbd, 0x01, 0xdd, 0x4d, 0x3f,
  0x11, 0xd4, 0x2f, 0x3f, 0x68, 0x8e, 0xf7, 0x3d, 0x0f, 0x5e, 0x1f, 0x3f,
  0x53, 0x2d, 0xd0, 0xbe, 0x48, 0x87, 0x83, 0x3d, 0x20, 0x0b, 0xdf, 0x3c,
  0x89, 0x58, 0x6d, 0xbe, 0xa8, 0xcf, 0xa6, 0xbe, 0x2a, 0xd1, 0xe9, 0xbe,
  0x18, 0x2a, 0xbd, 0x3e, 0x84, 0x76, 0x1a, 0xbe, 0x90, 0xa4, 0xd2, 0xbc,
  0x94, 0x75, 0x95, 0xbe, 0x62, 0xf8, 0xc9, 0x3e, 0x60, 0xe2, 0xaf, 0x3c,
  0xfb, 0x76, 0xe3, 0xbe, 0xdc, 0x8f, 0xbe, 0xbe, 0x98, 0x8d, 0x02, 0x3e,
  0x28, 0x62, 0x89, 0xbd, 0x68, 0x52, 0x5c, 0x3d, 0xba, 0x5e, 0x41, 0x3d,
  0x56, 0x07, 0xc5, 0xbe, 0x25, 0xac, 0xc5, 0x3e, 0x25, 0x42, 0x97, 0x3d,
  0xb0, 0x18, 0x85, 0x3e, 0xf6, 0xa3, 0xb2, 0x3e, 0x76, 0xfe, 0xae, 0xbe,
  0xf8, 0x2f, 0x1a, 0x3d, 0xf4, 0x1b, 0xa3, 0xbe, 0xd4, 0xcd, 0xab, 0xbd,
  0x40, 0x2c, 0x50, 0x3c, 0xc8, 0x16, 0xc6, 0xbd, 0x53, 0x39, 0x13, 0x3f,
  0x62, 0x85, 0xe4, 0xbe, 0x94, 0x47, 0xe2, 0xbe, 0xa9, 0x56, 0x92, 0x3f,
  0x41, 0xdb, 0xb2, 0xbe, 0x03, 0x44, 0x13, 0x3f, 0xf1, 0x95, 0x5e, 0xbe,
  0xcd, 0x25, 0x89, 0x3f, 0x93, 0x96, 0x7d, 0xbe, 0x18, 0xdd, 0x0d, 0xbd,
  0xa8, 0xe7, 0x54, 0xbf, 0xdb, 0x3e, 0x68, 0x3f, 0x1e, 0xcb, 0xae, 0x3e,
  0xda, 0xb8, 0x07, 0xbe, 0xf8, 0x31, 0x4a, 0x3d, 0x0a, 0xe6, 0xac, 0x3e,
  0x32, 0x1c, 0x2b, 0x3f, 0x30, 0xc8, 0xf4, 0xbd, 0x00, 0x5a, 0x59, 0x3d,
  0x18, 0x70, 0x4c, 0x3e, 0xff, 0x60, 0x3d, 0x3f, 0x7a, 0x00, 0x82, 0x3f,
  0xaf, 0x26, 0x55, 0xbe, 0x56, 0x68, 0x7b, 0xbe, 0xe1, 0x52, 0xd3, 0xbe,
  0xa0, 0x34, 0xa1, 0xbe, 0xd0, 0xd7, 0xe9, 0xbc, 0x3f, 0xf7, 0xba, 0xbe,
  0xf0, 0xe3, 0x3e, 0x3f, 0xfc, 0x94, 0xb8, 0xbd, 0x61, 0x39, 0x66, 0x3f,
  0x3c, 0x84, 0x30, 0xbf, 0xe3, 0x2d, 0x70, 0xbe, 0x2b, 0x74, 0xc5, 0x3e,
  0x6d, 0x20, 0x75, 0xbe, 0x29, 0xbf, 0xd1, 0xbe, 0x75, 0x51, 0xb9, 0x3e,
  0x00, 0xb7, 0x8e, 0xbd, 0x48, 0xf1, 0x01, 0xbe, 0x45, 0x09, 0xb2, 0xbe,
  0x73, 0x12, 0x8a, 0xbe, 0x07, 0x53, 0x21, 0xbe, 0xd0, 0xf2, 0x8c, 0x3e,
  0x7f, 0xc9, 0x14, 0x3e, 0xee, 0xdb, 0x78, 0xbd, 0x13, 0x44, 0xc8, 0x3e,
  0x08, 0x67, 0xc5, 0xbd, 0xcb, 0x11, 0x09, 0xbf, 0x52, 0x2b, 0x4e, 0xbf,
  0x28, 0x8a, 0x8e, 0x3d, 0xb7, 0xca, 0x87, 0xbe, 0x05, 0xcc, 0xb3, 0x3e,
  0xa4, 0x2b, 0x96, 0xbe, 0x59, 0x73, 0x8e, 0x3e, 0xe0, 0xd6, 0xf7, 0x3c,
  0x38, 0xd2, 0x4b, 0x3e, 0x58, 0xee, 0x05, 0x3f, 0xc0, 0xce, 0x5f, 0xbc,
  0x08, 0xa9, 0x78, 0x3e, 0xaf, 0x2b, 0xd3, 0xbe, 0x7d, 0xe9, 0xcc, 0xbe,
  0x43, 0x1d, 0x44, 0xbf, 0xc4, 0xb7, 0x35, 0x3e, 0xc9, 0xae, 0x52, 0x3f,
  0xa7, 0xf0, 0xb9, 0x3e, 0x55, 0xad, 0x55, 0x3f, 0x98, 0xa1, 0x90, 0xbd,
  0x69, 0x74, 0x28, 0x3f, 0x96, 0x64, 0x30, 0xbf, 0xea, 0xcf, 0xc6, 0x3e,
  0x3b, 0x27, 0xfa, 0xbe, 0x24, 0x55, 0xfd, 0x3e, 0xc0, 0x0a, 0xef, 0xbd,
  0xda, 0x1d, 0x0d, 0x3e, 0x50, 0x0c, 0xba, 0x3d, 0x94, 0xf9, 0xa9, 0x3e,
  0x65, 0x6d, 0x92, 0xbe, 0x90, 0x7e, 0x82, 0x3e, 0x28, 0x06, 0x9b, 0x3e,
  0x39, 0xcf, 0x72, 0xbe, 0xb1, 0xe3, 0x5f, 0x3d, 0x80, 0x3d, 0x9c, 0xbe,
  0x78, 0xe7, 0xac, 0xbd, 0xec, 0x14, 0x18, 0x3d, 0xe2, 0x16, 0xb4, 0xbe,
  0x4f, 0x1a, 0x7c, 0xbd, 0xdd, 0x39, 0xb2, 0xbe, 0xa4, 0x4f, 0xb1, 0xbd,
  0x1e, 0x43, 0x72, 0x3e, 0x54, 0x2c, 0xcd, 0x3e, 0xf4, 0xf0, 0xb2, 0xbe,
  0x61, 0x49, 0xcc, 0x3e, 0x8a, 0xf7, 0xff, 0xff, 0x10, 0x00, 0x00, 0x00,
  0x06, 0x00, 0x00, 0x00, 0x14, 0x00, 0x00, 0x00, 0x60, 0x00, 0x00, 0x00,
  0x02, 0x00, 0x00, 0x00, 0x0a, 0x00, 0x00, 0x00, 0x14, 0x00, 0x00, 0x00,
  0x4b, 0x00, 0x00, 0x00, 0x73, 0x65, 0x71, 0x75, 0x65, 0x6e, 0x74, 0x69,
  0x61, 0x6c, 0x2f, 0x64, 0x65, 0x6e, 0x73, 0x65, 0x5f, 0x31, 0x2f, 0x4d,
  0x61, 0x74, 0x4d, 0x75, 0x6c, 0x3b, 0x53, 0x74, 0x61, 0x74, 0x65, 0x66,
  0x75, 0x6c, 0x50, 0x61, 0x72, 0x74, 0x69, 0x74, 0x69, 0x6f, 0x6e, 0x65,
  0x64, 0x43, 0x61, 0x6c, 0x6c, 0x2f, 0x73, 0x65, 0x71, 0x75, 0x65, 0x6e,
  0x74, 0x69, 0x61, 0x6c, 0x2f, 0x64, 0x65, 0x6e, 0x73, 0x65, 0x5f, 0x31,
  0x2f, 0x4d, 0x61, 0x74, 0x4d, 0x75, 0x6c, 0x00, 0xb8, 0xf7, 0xff, 0xff,
  0x96, 0xf8, 0xff, 0xff, 0x04, 0x00, 0x00, 0x00, 0x40, 0x06, 0x00, 0x00,
  0x6c, 0x49, 0x91, 0xbe, 0x03, 0xff, 0x87, 0xbe, 0x6d, 0x18, 0x6c, 0xbe,
  0x58, 0x1b, 0x3e, 0x3d, 0x60, 0x87, 0x81, 0xbd, 0xb0, 0x67, 0x06, 0x3d,
  0x57, 0x09, 0xa6, 0xbe, 0xa0, 0x02, 0x8f, 0xbe, 0xfb, 0xcc, 0x9c, 0xbe,
  0xa0, 0xcb, 0x69, 0x3d, 0xca, 0x31, 0xb1, 0x3e, 0x08, 0x22, 0x43, 0xbe,
  0x3d, 0x9e, 0x85, 0xbe, 0xb4, 0x36, 0xac, 0x3e, 0xb8, 0x4b, 0x21, 0x3e,
  0x0c, 0xab, 0xbf, 0x3e, 0x36, 0x2e, 0xb2, 0x3e, 0xc4, 0xee, 0xfb, 0xbd,
  0x6a, 0x87, 0x85, 0x3e, 0x0d, 0x9f, 0x7b, 0xbe, 0x09, 0xd3, 0x54, 0x3d,
  0x1a, 0x24, 0xb0, 0x3d, 0x23, 0xe4, 0x8b, 0x3b, 0x18, 0xb1, 0x15, 0xbe,
  0x26, 0x39, 0xa2, 0x3d, 0x2a, 0x0f, 0xb8, 0x3e, 0xab, 0x1f, 0x79, 0x3e,
  0x07, 0x80, 0xa0, 0x3e, 0x23, 0x60, 0x9e, 0xbe, 0x3a, 0xc2, 0x80, 0x3e,
  0x71, 0x26, 0x4f, 0x3e, 0x0e, 0x9e, 0x39, 0xbe, 0x29, 0x8f, 0xa4, 0xbd,
  0xf0, 0x1d, 0xa6, 0xbe, 0x68, 0x0c, 0x5e, 0xbe, 0x6a, 0x84, 0x1d, 0xbe,
  0xa0, 0xba, 0x12, 0xbe, 0xb3, 0x82, 0xa3, 0xbe, 0xdf, 0x79, 0x87, 0x3e,
  0x41, 0xb2, 0x30, 0x3e, 0x00, 0x38, 0x3a, 0xbb, 0xc1, 0xd1, 0xc0, 0xbe,
  0x31, 0x6b, 0x9a, 0xbe, 0x38, 0xc9, 0x24, 0x3e, 0x00, 0x7e, 0x12, 0xba,
  0xe4, 0x60, 0xb0, 0x3d, 0x6d, 0x13, 0xbb, 0xbe, 0x60, 0x02, 0xba, 0xbd,
  0x4a, 0x8f, 0x75, 0xbe, 0xb0, 0xf0, 0x1c, 0x3d, 0x52, 0x95, 0x03, 0xbe,
  0x18, 0x55, 0xbf, 0xbd, 0xeb, 0x7a, 0x90, 0xbe, 0x9c, 0x56, 0xab, 0xbd,
  0x34, 0x8e, 0x4f, 0x3e, 0x5c, 0x24, 0xa4, 0xbe, 0x98, 0x26, 0x86, 0xbe,
  0x60, 0xbf, 0xb8, 0xbd, 0x0e, 0xcd, 0xa2, 0x3e, 0xdc, 0x57, 0xbc, 0xbe,
  0xad, 0x9b, 0xbf, 0xbe, 0xb4, 0x80, 0xd3, 0xbd, 0xcc, 0xc5, 0x9b, 0xbe,
  0x24, 0x42, 0x23, 0x3e, 0x38, 0x81, 0xcf, 0x3d, 0xdc, 0xb7, 0xe4, 0x3d,
  0x06, 0x69, 0x88, 0xbe, 0xe0, 0x41, 0x71, 0x3d, 0x68, 0x8d, 0x6f, 0x3d,
  0x54, 0x21, 0xa8, 0x3e, 0x80, 0xf3, 0x09, 0x3b, 0xb1, 0x50, 0xaa, 0xbe,
  0xb8, 0x23, 0x78, 0x3d, 0x4c, 0xda, 0x2e, 0x3e, 0x10, 0xcf, 0x03, 0x3d,
  0xa8, 0xde, 0x40, 0xbe, 0x14, 0x3b, 0xd2, 0xbd, 0xac, 0x58, 0xa7, 0xbd,
  0xbe, 0xeb, 0xb8, 0x3e, 0x9c, 0xe8, 0x65, 0x3e, 0xfc, 0xee, 0xa6, 0x3e,
  0x7b, 0xa2, 0x09, 0x3f, 0x5c, 0xdf, 0xbc, 0x3d, 0x4d, 0x06, 0x10, 0x3f,
  0x41, 0xb0, 0xcf, 0x3e, 0xb5, 0x42, 0x42, 0x3e, 0x75, 0x62, 0xe7, 0xbe,
  0xc9, 0xda, 0x97, 0xbe, 0xcd, 0xbf, 0xa2, 0xbd, 0xdd, 0xde, 0xd1, 0x3e,
  0x80, 0x41, 0x33, 0x3f, 0x82, 0x40, 0x16, 0x3f, 0x35, 0x86, 0x0c, 0x3f,
  0xa0, 0x13, 0xfd, 0x3e, 0x64, 0x9a, 0x7d, 0x3e, 0xbe, 0xba, 0x89, 0xbe,
  0xe2, 0x68, 0xe3, 0xbe, 0xcd, 0x6a, 0xd6, 0xbe, 0x68, 0x85, 0x29, 0xbe,
  0x36, 0xf6, 0x01, 0x3f, 0x58, 0x4a, 0x45, 0x3e, 0x9c, 0xfb, 0x5d, 0xbe,
  0xa4, 0x56, 0x93, 0xbd, 0xe8, 0xb0, 0x81, 0xbd, 0xa0, 0x46, 0x04, 0xbc,
  0x24, 0x7e, 0x12, 0x3e, 0xc0, 0xe0, 0xbe, 0x3d, 0x94, 0xc4, 0x03, 0x3e,
  0x80, 0xef, 0xf2, 0xbb, 0x19, 0x86, 0xa3, 0xbe, 0xd4, 0xa4, 0x40, 0xbe,
  0x3e, 0x90, 0x71, 0xbe, 0xa8, 0x14, 0xb4, 0x3e, 0xf4, 0xcf, 0x38, 0xbe,
  0x9e, 0x0e, 0x90, 0x3e, 0x8c, 0xa5, 0x8f, 0x3d, 0x60, 0x3b, 0x49, 0xbe,
  0x84, 0xdd, 0x0b, 0x3e, 0x04, 0x47, 0x84, 0x3e, 0x4a, 0xe3, 0xa5, 0x3e,
  0x22, 0x9b, 0x92, 0xbe, 0xce, 0xd0, 0xb0, 0x3e, 0xb8, 0x65, 0x45, 0xbd,
  0x7e, 0x11, 0x0e, 0xbe, 0x92, 0x79, 0x17, 0xbe, 0xc0, 0x61, 0xe7, 0x3d,
  0xd8, 0xd3, 0xe5, 0x3d, 0x50, 0xd7, 0xb1, 0xbd, 0xe1, 0x25, 0x37, 0xbe,
  0x1c, 0x80, 0x52, 0x3e, 0xe7, 0xab, 0xa2, 0xbe, 0x7f, 0x34, 0x94, 0xbe,
  0x44, 0xdb, 0xc2, 0xbe, 0x27, 0x09, 0x8b, 0xbe, 0x34, 0x02, 0xaa, 0x3e,
  0xcc, 0xc3, 0xbb, 0x3d, 0x5c, 0x49, 0xa3, 0xbd, 0x74, 0x09, 0x3a, 0x3e,
  0x68, 0xd1, 0xd3, 0x3d, 0x86, 0xc8, 0x0a, 0xbe, 0x5c, 0x63, 0x02, 0xbe,
  0x94, 0xc2, 0xbe, 0x3e, 0x50, 0x4a, 0x84, 0xbe, 0xb8, 0x66, 0xb6, 0xbd,
  0xb0, 0x47, 0xa1, 0xbe, 0x88, 0xb3, 0xb4, 0x3e, 0x50, 0x8e, 0x64, 0x3d,
  0x12, 0x24, 0xb6, 0xbe, 0xf0, 0x78, 0x9c, 0x3e, 0x50, 0xc5, 0x98, 0xbe,
  0xfc, 0xd0, 0x76, 0x3e, 0xaf, 0x98, 0x53, 0xbe, 0xea, 0x56, 0x8d, 0xbe,
  0x5b, 0xa7, 0x2b, 0xbe, 0x3e, 0x49, 0x59, 0xbe, 0x80, 0x6a, 0x22, 0xbd,
  0x80, 0x5b, 0xec, 0xbb, 0x73, 0xb9, 0x9a, 0xbe, 0xc0, 0x2b, 0xb7, 0x3c,
  0xb0, 0x3a, 0xdd, 0xbd, 0xd4, 0xb4, 0x70, 0x3e, 0x87, 0xbb, 0x8b, 0x3e,
  0x3d, 0x6a, 0x84, 0x3e, 0x2e, 0x5a, 0x7f, 0xbe, 0x5a, 0x25, 0xa9, 0x3e,
  0xe2, 0x0d, 0xd6, 0x3e, 0x45, 0xf8, 0xf2, 0x3d, 0xaa, 0xb6, 0x28, 0x3e,
  0x23, 0x56, 0xcd, 0x3e, 0xff, 0xeb, 0x2f, 0xbd, 0xd1, 0x0b, 0x80, 0xbf,
  0x82, 0xc5, 0x84, 0xbe, 0x9a, 0xf7, 0x17, 0xbf, 0x06, 0x22, 0x45, 0xbf,
  0x89, 0xda, 0x3e, 0xbf, 0x19, 0xa0, 0xe9, 0xbb, 0x2d, 0xd7, 0x9a, 0x3e,
  0x1a, 0x91, 0x20, 0x3e, 0x30, 0x57, 0x01, 0x3f, 0x70, 0x40, 0xf9, 0xbe,
  0x45, 0xd0, 0xa0, 0x3c, 0xc0, 0xcc, 0xe6, 0x3d, 0x8e, 0xee, 0x94, 0x3d,
  0xfb, 0x6d, 0x67, 0x3e, 0xff, 0xac, 0xcf, 0xbe, 0x10, 0x62, 0x9e, 0xbe,
  0xeb, 0x92, 0xa7, 0xbe, 0x1a, 0xb3, 0xdd, 0xbe, 0x75, 0x4f, 0xca, 0xbd,
  0x05, 0x08, 0xfb, 0x3d, 0x2c, 0x91, 0xc6, 0xbe, 0x08, 0xf6, 0x05, 0xbf,
  0x45, 0x7a, 0x15, 0xbf, 0xa7, 0x42, 0xd5, 0xbe, 0x41, 0xe6, 0x71, 0xbe,
  0xae, 0x40, 0xe2, 0xbe, 0xae, 0x15, 0x2f, 0xbe, 0xa8, 0x33, 0x57, 0x3d,
  0xe0, 0xb6, 0x03, 0x3d, 0x06, 0x04, 0x75, 0xbf, 0xfe, 0x19, 0x9d, 0xbe,
  0x40, 0x7b, 0xa2, 0xbe, 0x83, 0x6f, 0xba, 0xbe, 0xbb, 0x2b, 0x93, 0xbe,
  0xce, 0x8e, 0xb8, 0x3e, 0x66, 0xac, 0x04, 0xbe, 0x98, 0x6f, 0xfc, 0x3d,
  0xc0, 0x15, 0x4b, 0xbc, 0x28, 0x3f, 0x59, 0x3d, 0x60, 0x50, 0x84, 0x3e,
  0xb0, 0x71, 0xeb, 0x3c, 0xb0, 0xc8, 0xa6, 0x3e, 0xbc, 0xf2, 0x93, 0x3d,
  0x52, 0xf9, 0xa4, 0x3e, 0xe0, 0x9b, 0x36, 0xbd, 0xa5, 0xd1, 0x8f, 0xbe,
  0x9e, 0x9e, 0x76, 0xbe, 0x88, 0x49, 0x6f, 0x3e, 0x88, 0x68, 0xf3, 0xbd,
  0xe8, 0xf3, 0x25, 0xbd, 0x1d, 0x4c, 0xc6, 0x3e, 0xaf, 0xd1, 0x8d, 0x3e,
  0x23, 0x89, 0x56, 0x3d, 0xad, 0xf9, 0x5f, 0x3a, 0xca, 0x7e, 0x35, 0x3e,
  0x2c, 0x37, 0x82, 0x3f, 0x04, 0x5f, 0x3e, 0x3f, 0xfa, 0xa2, 0x67, 0x3f,
  0xd2, 0xa4, 0x6f, 0x3f, 0xa3, 0x9c, 0x9f, 0x3e, 0x72, 0xd8, 0x9c, 0xbe,
  0x25, 0x4c, 0xb8, 0x3d, 0x4b, 0x59, 0x30, 0xbe, 0x2a, 0x0b, 0xf7, 0xbe,
  0x25, 0x2e, 0x60, 0xbe, 0xb8, 0x0a, 0x6c, 0x3f, 0x9a, 0xb5, 0x4e, 0x3f,
  0x6f, 0x02, 0x7a, 0x3f, 0x33, 0x4b, 0x86, 0x3f, 0xfa, 0xb8, 0x62, 0x3f,
  0xb5, 0x15, 0xe9, 0x3d, 0x3d, 0x37, 0x6b, 0x3e, 0x33, 0x42, 0x0f, 0x3d,
  0x5c, 0x28, 0x7e, 0xbe, 0x14, 0xbd, 0x87, 0x3e, 0x44, 0xd7, 0x1d, 0xbe,
  0xbc, 0x84, 0x91, 0x3d, 0xec, 0x97, 0x4a, 0xbe, 0x28, 0xa8, 0xaf, 0xbd,
  0x23, 0x10, 0xa6, 0x3e, 0x22, 0x6e, 0x6b, 0xbd, 0xc3, 0x5a, 0x5f, 0xbe,
  0x17, 0x6e, 0x9c, 0xbe, 0x07, 0xca, 0x92, 0x3e, 0x9f, 0xef, 0x9c, 0x3e,
  0x05, 0xd6, 0xcb, 0xbe, 0xd0, 0x33, 0x29, 0x3e, 0x02, 0x0e, 0x55, 0xbd,
  0x33, 0x42, 0xca, 0xbe, 0xcd, 0x5c, 0xe4, 0xbd, 0x89, 0xf4, 0x18, 0x3e,
  0x1c, 0xe0, 0x4c, 0x3e, 0xc4, 0x5b, 0x5b, 0xbb, 0xe0, 0x62, 0xba, 0x3e,
  0x53, 0x7c, 0x1c, 0x3e, 0x1f, 0xb2, 0x3c, 0x3e, 0xae, 0x33, 0xf0, 0x3e,
  0x2f, 0x39, 0x4c, 0x3e, 0x1c, 0xee, 0xc9, 0x3e, 0x83, 0x16, 0x5e, 0x3e,
  0xae, 0xad, 0x5f, 0x3f, 0x9f, 0x51, 0x56, 0x3f, 0xf1, 0x08, 0x30, 0x3f,
  0x62, 0x8f, 0xb0, 0x3e, 0xd2, 0x94, 0xe4, 0x3e, 0x1f, 0x83, 0xb1, 0x3e,
  0x37, 0x13, 0x09, 0x3d, 0xb1, 0x77, 0x94, 0x3d, 0xa4, 0x3f, 0xbd, 0x3e,
  0xed, 0x46, 0x77, 0x3f, 0x71, 0xfa, 0x67, 0xbe, 0xdd, 0x11, 0xc3, 0xbe,
  0xf8, 0xe0, 0xc2, 0x3e, 0xad, 0x85, 0x3a, 0xbe, 0xcc, 0xdb, 0x39, 0x3e,
  0x12, 0x55, 0x06, 0xbe, 0x40, 0xa7, 0x47, 0x3e, 0x7c, 0x7d, 0x72, 0x3e,
  0x80, 0x96, 0x16, 0x3d, 0x18, 0x81, 0x10, 0xbe, 0xf1, 0x81, 0xa5, 0xbe,
  0x98, 0xb0, 0x86, 0xbd, 0x73, 0xee, 0xa0, 0xbe, 0xa8, 0xde, 0xd1, 0xbd,
  0xc8, 0xd4, 0x1b, 0x3d, 0xa0, 0xd3, 0x74, 0xbd, 0x39, 0x2c, 0x54, 0xbe,
  0x8f, 0x76, 0x32, 0xbe, 0x54, 0xde, 0x26, 0xbe, 0x31, 0xc9, 0x64, 0xbe,
  0x4a, 0x11, 0x8d, 0xbd, 0x8c, 0x9b, 0x08, 0x3f, 0x7c, 0xf1, 0x49, 0x3d,
  0xaf, 0xa4, 0x98, 0x3e, 0x51, 0x36, 0x2f, 0x3e, 0x94, 0x20, 0x89, 0x3f,
  0x31, 0xca, 0x02, 0x3f, 0x98, 0xae, 0x0b, 0x3f, 0x37, 0x65, 0x2f, 0x3f,
  0xae, 0x1c, 0xbc, 0x3e, 0x87, 0x6c, 0x21, 0xbf, 0xe0, 0xc2, 0x6b, 0xbe,
  0x18, 0xd0, 0x0e, 0xbf, 0xca, 0xa3, 0x03, 0xbf, 0xe1, 0x5f, 0x89, 0x3e,
  0x2a, 0xea, 0xf0, 0x3e, 0x0c, 0x02, 0x3b, 0x3f, 0xdc, 0xf6, 0x82, 0x3f,
  0xc3, 0x9c, 0x7f, 0x3f, 0x43, 0xf6, 0x67, 0x3f, 0xc6, 0xd7, 0x3e, 0xbe,
  0x59, 0xfc, 0xdb, 0x3e, 0xd1, 0x90, 0xa8, 0x3e, 0x58, 0x16, 0x2a, 0x3e,
  0x1a, 0x0d, 0x2a, 0xbb, 0xc6, 0x88, 0x13, 0xbd, 0xe7, 0xc4, 0xa2, 0xbd,
  0xb2, 0x42, 0x5b, 0xbe, 0xa6, 0x08, 0xa4, 0xbd, 0x7b, 0xda, 0xaf, 0x3e,
  0xbb, 0x5e, 0x0b, 0xbf, 0xf4, 0x73, 0x5e, 0xbf, 0xb6, 0xb5, 0x46, 0xbf,
  0x88, 0xd5, 0x66, 0xbf, 0x48, 0x92, 0x10, 0xbf, 0x00, 0xb8, 0x09, 0x3e,
  0x12, 0x57, 0x68, 0x3e, 0xec, 0x47, 0x04, 0x3e, 0x55, 0x50, 0xbc, 0xbe,
  0xf3, 0xec, 0x1e, 0xbf, 0x2b, 0x97, 0x2d, 0xbe, 0x50, 0x92, 0xaa, 0x3c,
  0x66, 0x01, 0xba, 0xbe, 0xc7, 0xf0, 0xa7, 0xbe, 0x52, 0x6c, 0xad, 0x3e,
  0x5a, 0xaa, 0x24, 0xbe, 0x94, 0xc2, 0x82, 0x3d, 0x4a, 0x86, 0x8b, 0x3e,
  0xad, 0x94, 0x61, 0xbe, 0xe0, 0xd5, 0xf9, 0x3c, 0x68, 0xc6, 0x0a, 0x3d,
  0x94, 0x9f, 0x28, 0x3e, 0x78, 0x3e, 0xa5, 0x3d, 0x1c, 0xa4, 0xee, 0xbd,
  0x98, 0x0e, 0x7a, 0xbd, 0xb4, 0x5c, 0xe4, 0xbd, 0xa0, 0xb6, 0x89, 0x3c,
  0x48, 0x58, 0x7b, 0xbd, 0x52, 0xcc, 0x4e, 0xbe, 0x70, 0x1b, 0x9c, 0x3e,
  0xb1, 0x47, 0xa2, 0xbd, 0xda, 0xc9, 0xc9, 0x3d, 0xea, 0x0e, 0xf9, 0x3e,
  0xde, 0x69, 0x03, 0x3f, 0x76, 0x5b, 0x9b, 0x3e, 0x61, 0x81, 0x0e, 0x3c,
  0xf1, 0xcb, 0x1b, 0xbe, 0x96, 0xe2, 0xc8, 0xbe, 0xe6, 0x06, 0x76, 0xbe,
  0x65, 0x72, 0x67, 0x3e, 0xd6, 0x09, 0x52, 0xbf, 0xf8, 0xdb, 0x40, 0xbf,
  0x79, 0xcc, 0x58, 0xbe, 0x6f, 0xa6, 0x08, 0xbf, 0x8d, 0x02, 0xdc, 0xbe,
  0xd6, 0x79, 0xc6, 0xbd, 0x7b, 0x84, 0x02, 0xbf, 0xbd, 0x5f, 0xdd, 0xbe,
  0x6c, 0x9d, 0x2e, 0xbf, 0x34, 0x89, 0x25, 0xbf, 0x40, 0x99, 0xe0, 0xbd,
  0x63, 0xee, 0x32, 0x3e, 0x8c, 0xdf, 0x87, 0x3e, 0xbe, 0x33, 0x3a, 0x3e,
  0x00, 0x43, 0xbd, 0x3d, 0x9b, 0xbf, 0x8d, 0x3e, 0x72, 0x9a, 0x99, 0x3e,
  0x9c, 0xaa, 0x34, 0xbd, 0xac, 0xb4, 0x20, 0x3f, 0xdf, 0x59, 0x24, 0x3e,
  0x7c, 0x1a, 0xc5, 0x3e, 0x80, 0xc1, 0x44, 0x3f, 0x08, 0xc3, 0xe7, 0x3e,
  0x8f, 0x55, 0xba, 0x3e, 0x52, 0x2b, 0x31, 0x3f, 0x39, 0x3a, 0x19, 0x3f,
  0x5b, 0x97, 0x0e, 0x3f, 0x96, 0xd2, 0xf8, 0x3d, 0x9c, 0x26, 0x15, 0x3f,
  0x75, 0x4d, 0x15, 0x3f, 0x4a, 0xfe, 0xff, 0xff, 0x10, 0x00, 0x00, 0x00,
  0x05, 0x00, 0x00, 0x00, 0x14, 0x00, 0x00, 0x00, 0x5c, 0x00, 0x00, 0x00,
  0x02, 0x00, 0x00, 0x00, 0x14, 0x00, 0x00, 0x00, 0x14, 0x00, 0x00, 0x00,
  0x47, 0x00, 0x00, 0x00, 0x73, 0x65, 0x71, 0x75, 0x65, 0x6e, 0x74, 0x69,
  0x61, 0x6c, 0x2f, 0x64, 0x65, 0x6e, 0x73, 0x65, 0x2f, 0x4d, 0x61, 0x74,
  0x4d, 0x75, 0x6c, 0x3b, 0x53, 0x74, 0x61, 0x74, 0x65, 0x66, 0x75, 0x6c,
  0x50, 0x61, 0x72, 0x74, 0x69, 0x74, 0x69, 0x6f, 0x6e, 0x65, 0x64, 0x43,
  0x61, 0x6c, 0x6c, 0x2f, 0x73, 0x65, 0x71, 0x75, 0x65, 0x6e, 0x74, 0x69,
  0x61, 0x6c, 0x2f, 0x64, 0x65, 0x6e, 0x73, 0x65, 0x2f, 0x4d, 0x61, 0x74,
  0x4d, 0x75, 0x6c, 0x00, 0x74, 0xfe, 0xff, 0xff, 0x52, 0xff, 0xff, 0xff,
  0x04, 0x00, 0x00, 0x00, 0x0c, 0x00, 0x00, 0x00, 0x1a, 0xb9, 0xf5, 0x3e,
  0xfe, 0x30, 0x26, 0xbe, 0x85, 0xc9, 0xe7, 0xbe, 0xd2, 0xfe, 0xff, 0xff,
  0x10, 0x00, 0x00, 0x00, 0x04, 0x00, 0x00, 0x00, 0x10, 0x00, 0x00, 0x00,
  0x1c, 0x00, 0x00, 0x00, 0x01, 0x00, 0x00, 0x00, 0x03, 0x00, 0x00, 0x00,
  0x09, 0x00, 0x00, 0x00, 0x75, 0x6e, 0x6b, 0x6e, 0x6f, 0x77, 0x6e, 0x5f,
  0x34, 0x00, 0x00, 0x00, 0xbc, 0xfe, 0xff, 0xff, 0x9a, 0xff, 0xff, 0xff,
  0x04, 0x00, 0x00, 0x00, 0x28, 0x00, 0x00, 0x00, 0x98, 0x0a, 0xa7, 0x3e,
  0x00, 0x00, 0x00, 0x00, 0xf0, 0xfd, 0x8c, 0xbc, 0x19, 0x44, 0x9d, 0x3e,
  0xb1, 0x23, 0xe3, 0xbc, 0x02, 0xaa, 0x91, 0xbe, 0xb8, 0xbb, 0x19, 0x3f,
  0x1e, 0xaf, 0x5d, 0x3e, 0xe9, 0x79, 0x79, 0xbe, 0x47, 0x06, 0xea, 0xbc,
  0x36, 0xff, 0xff, 0xff, 0x10, 0x00, 0x00, 0x00, 0x03, 0x00, 0x00, 0x00,
  0x10, 0x00, 0x00, 0x00, 0x1c, 0x00, 0x00, 0x00, 0x01, 0x00, 0x00, 0x00,
  0x0a, 0x00, 0x00, 0x00, 0x09, 0x00, 0x00, 0x00, 0x75, 0x6e, 0x6b, 0x6e,
  0x6f, 0x77, 0x6e, 0x5f, 0x32, 0x00, 0x00, 0x00, 0x6c, 0xff, 0xff, 0xff,
  0x00, 0x00, 0x06, 0x00, 0x08, 0x00, 0x04, 0x00, 0x06, 0x00, 0x00, 0x00,
  0x04, 0x00, 0x00, 0x00, 0x50, 0x00, 0x00, 0x00, 0x00, 0x00, 0x00, 0x00,
  0xd2, 0x56, 0x1d, 0xba, 0x00, 0x00, 0x00, 0x00, 0x00, 0x00, 0x00, 0x00,
  0xb8, 0x1c, 0xc5, 0x3e, 0x00, 0x00, 0x00, 0x00, 0x00, 0x00, 0x00, 0x00,
  0x00, 0x00, 0x00, 0x00, 0x1f, 0x16, 0x9e, 0x3e, 0x16, 0x1f, 0xb0, 0x3e,
  0x00, 0x00, 0x00, 0x00, 0x2b, 0xea, 0x94, 0xbe, 0xc7, 0x4c, 0xf6, 0xbc,
  0x44, 0x40, 0x3f, 0xbe, 0x00, 0x00, 0x00, 0x00, 0x61, 0xdd, 0x49, 0xbe,
  0xf0, 0x17, 0x9f, 0x3e, 0x00, 0x00, 0x00, 0x00, 0x31, 0x1f, 0xef, 0x3e,
  0xbc, 0x91, 0xa9, 0xbe, 0xca, 0xff, 0xff, 0xff, 0x10, 0x00, 0x00, 0x00,
  0x02, 0x00, 0x00, 0x00, 0x10, 0x00, 0x00, 0x00, 0x20, 0x00, 0x00, 0x00,
  0x01, 0x00, 0x00, 0x00, 0x14, 0x00, 0x00, 0x00, 0x09, 0x00, 0x00, 0x00,
  0x75, 0x6e, 0x6b, 0x6e, 0x6f, 0x77, 0x6e, 0x5f, 0x30, 0x00, 0x00, 0x00,
  0x04, 0x00, 0x06, 0x00, 0x04, 0x00, 0x00, 0x00, 0x00, 0x00, 0x0e, 0x00,
  0x14, 0x00, 0x04, 0x00, 0x00, 0x00, 0x08, 0x00, 0x0c, 0x00, 0x10, 0x00,
  0x0e, 0x00, 0x00, 0x00, 0x10, 0x00, 0x00, 0x00, 0x01, 0x00, 0x00, 0x00,
  0x14, 0x00, 0x00, 0x00, 0x20, 0x00, 0x00, 0x00, 0x02, 0x00, 0x00, 0x00,
  0x01, 0x00, 0x00, 0x00, 0x14, 0x00, 0x00, 0x00, 0x0b, 0x00, 0x00, 0x00,
  0x64, 0x65, 0x6e, 0x73, 0x65, 0x5f, 0x69, 0x6e, 0x70, 0x75, 0x74, 0x00,
  0xfc, 0xff, 0xff, 0xff, 0x04, 0x00, 0x04, 0x00, 0x04, 0x00, 0x00, 0x00
};
unsigned int trained_tflite_len = 4500;
