const unsigned char trained_tflite[] = {
  0x1c, 0x00, 0x00, 0x00, 0x54, 0x46, 0x4c, 0x33, 0x14, 0x00, 0x20, 0x00,
  0x04, 0x00, 0x08, 0x00, 0x0c, 0x00, 0x10, 0x00, 0x14, 0x00, 0x00, 0x00,
  0x18, 0x00, 0x1c, 0x00, 0x14, 0x00, 0x00, 0x00, 0x03, 0x00, 0x00, 0x00,
  0x18, 0x00, 0x00, 0x00, 0x20, 0x00, 0x00, 0x00, 0xb0, 0x00, 0x00, 0x00,
  0x20, 0x00, 0x00, 0x00, 0x58, 0x00, 0x00, 0x00, 0x50, 0x00, 0x00, 0x00,
  0x02, 0x00, 0x00, 0x00, 0x50, 0x04, 0x00, 0x00, 0x70, 0x01, 0x00, 0x00,
  0x01, 0x00, 0x00, 0x00, 0xb4, 0x00, 0x00, 0x00, 0x0d, 0x00, 0x00, 0x00,
  0x54, 0x12, 0x00, 0x00, 0x50, 0x12, 0x00, 0x00, 0x7c, 0x11, 0x00, 0x00,
  0x0c, 0x11, 0x00, 0x00, 0xc0, 0x10, 0x00, 0x00, 0x80, 0x09, 0x00, 0x00,
  0x2c, 0x06, 0x00, 0x00, 0x30, 0x05, 0x00, 0x00, 0x34, 0x12, 0x00, 0x00,
  0x30, 0x12, 0x00, 0x00, 0x2c, 0x12, 0x00, 0x00, 0x28, 0x12, 0x00, 0x00,
  0x3c, 0x00, 0x00, 0x00, 0x00, 0x00, 0x00, 0x00, 0x01, 0x00, 0x00, 0x00,
  0x0c, 0x00, 0x00, 0x00, 0x08, 0x00, 0x0c, 0x00, 0x04, 0x00, 0x08, 0x00,
  0x08, 0x00, 0x00, 0x00, 0x08, 0x00, 0x00, 0x00, 0x0c, 0x00, 0x00, 0x00,
  0x13, 0x00, 0x00, 0x00, 0x6d, 0x69, 0x6e, 0x5f, 0x72, 0x75, 0x6e, 0x74,
  0x69, 0x6d, 0x65, 0x5f, 0x76, 0x65, 0x72, 0x73, 0x69, 0x6f, 0x6e, 0x00,
  0xee, 0xee, 0xff, 0xff, 0x04, 0x00, 0x00, 0x00, 0x10, 0x00, 0x00, 0x00,
  0x31, 0x2e, 0x35, 0x2e, 0x30, 0x00, 0x00, 0x00, 0x00, 0x00, 0x00, 0x00,
  0x00, 0x00, 0x00, 0x00, 0x0f, 0x00, 0x00, 0x00, 0x4d, 0x4c, 0x49, 0x52,
  0x20, 0x43, 0x6f, 0x6e, 0x76, 0x65, 0x72, 0x74, 0x65, 0x64, 0x2e, 0x00,
  0x00, 0x00, 0x0e, 0x00, 0x18, 0x00, 0x04, 0x00, 0x08, 0x00, 0x0c, 0x00,
  0x10, 0x00, 0x14, 0x00, 0x0e, 0x00, 0x00, 0x00, 0x14, 0x00, 0x00, 0x00,
  0x40, 0x00, 0x00, 0x00, 0x44, 0x00, 0x00, 0x00, 0x48, 0x00, 0x00, 0x00,
  0x58, 0x00, 0x00, 0x00, 0x0b, 0x00, 0x00, 0x00, 0x54, 0x11, 0x00, 0x00,
  0x0c, 0x11, 0x00, 0x00, 0x7c, 0x10, 0x00, 0x00, 0x14, 0x10, 0x00, 0x00,
  0x88, 0x0f, 0x00, 0x00, 0x44, 0x08, 0x00, 0x00, 0xf0, 0x04, 0x00, 0x00,
  0x68, 0x03, 0x00, 0x00, 0xf0, 0x01, 0x00, 0x00, 0xe8, 0x00, 0x00, 0x00,
  0x80, 0x00, 0x00, 0x00, 0x01, 0x00, 0x00, 0x00, 0x00, 0x00, 0x00, 0x00,
  0x01, 0x00, 0x00, 0x00, 0x0a, 0x00, 0x00, 0x00, 0x04, 0x00, 0x00, 0x00,
  0xec, 0x02, 0x00, 0x00, 0x98, 0x01, 0x00, 0x00, 0x94, 0x00, 0x00, 0x00,
  0x1c, 0x00, 0x00, 0x00, 0x04, 0x00, 0x00, 0x00, 0x6d, 0x61, 0x69, 0x6e,
  0x00, 0x00, 0x0e, 0x00, 0x18, 0x00, 0x08, 0x00, 0x0c, 0x00, 0x10, 0x00,
  0x07, 0x00, 0x14, 0x00, 0x0e, 0x00, 0x00, 0x00, 0x00, 0x00, 0x00, 0x09,
  0x01, 0x00, 0x00, 0x00, 0x1c, 0x00, 0x00, 0x00, 0x10, 0x00, 0x00, 0x00,
  0x04, 0x00, 0x00, 0x00, 0xca, 0xef, 0xff, 0xff, 0x00, 0x00, 0x80, 0x3f,
  0x01, 0x00, 0x00, 0x00, 0x0a, 0x00, 0x00, 0x00, 0x01, 0x00, 0x00, 0x00,
  0x09, 0x00, 0x00, 0x00, 0x30, 0xfd, 0xff, 0xff, 0x19, 0x00, 0x00, 0x00,
  0x00, 0x00, 0x00, 0x19, 0x01, 0x00, 0x00, 0x00, 0x62, 0xef, 0xff, 0xff,
  0x10, 0x00, 0x00, 0x00, 0x0b, 0x00, 0x00, 0x00, 0x14, 0x00, 0x00, 0x00,
  0x20, 0x00, 0x00, 0x00, 0x02, 0x00, 0x00, 0x00, 0x01, 0x00, 0x00, 0x00,
  0x03, 0x00, 0x00, 0x00, 0x08, 0x00, 0x00, 0x00, 0x49, 0x64, 0x65, 0x6e,
  0x74, 0x69, 0x74, 0x79, 0x00, 0x00, 0x00, 0x00, 0x50, 0xef, 0xff, 0xff,
  0x0e, 0xff, 0xff, 0xff, 0x00, 0x00, 0x00, 0x08, 0x18, 0x00, 0x00, 0x00,
  0x0c, 0x00, 0x00, 0x00, 0x04, 0x00, 0x00, 0x00, 0x68, 0xef, 0xff, 0xff,
  0x01, 0x00, 0x00, 0x00, 0x09, 0x00, 0x00, 0x00, 0x03, 0x00, 0x00, 0x00,
  0x08, 0x00, 0x00, 0x00, 0x06, 0x00, 0x00, 0x00, 0x03, 0x00, 0x00, 0x00,
  0xc6, 0xef, 0xff, 0xff, 0x10, 0x00, 0x00, 0x00, 0x0a, 0x00, 0x00, 0x00,
  0x14, 0x00, 0x00, 0x00, 0xac, 0x00, 0x00, 0x00, 0x02, 0x00, 0x00, 0x00,
  0x01, 0x00, 0x00, 0x00, 0x03, 0x00, 0x00, 0x00, 0x95, 0x00, 0x00, 0x00,
  0x73, 0x65, 0x71, 0x75, 0x65, 0x6e, 0x74, 0x69, 0x61, 0x6c, 0x2f, 0x79,
  0x5f, 0x70, 0x72, 0x65, 0x64, 0x2f, 0x4d, 0x61, 0x74, 0x4d, 0x75, 0x6c,
  0x3b, 0x53, 0x74, 0x61, 0x74, 0x65, 0x66, 0x75, 0x6c, 0x50, 0x61, 0x72,
  0x74, 0x69, 0x74, 0x69, 0x6f, 0x6e, 0x65, 0x64, 0x43, 0x61, 0x6c, 0x6c,
  0x2f, 0x73, 0x65, 0x71, 0x75, 0x65, 0x6e, 0x74, 0x69, 0x61, 0x6c, 0x2f,
  0x79, 0x5f, 0x70, 0x72, 0x65, 0x64, 0x2f, 0x4d, 0x61, 0x74, 0x4d, 0x75,
  0x6c, 0x3b, 0x73, 0x65, 0x71, 0x75, 0x65, 0x6e, 0x74, 0x69, 0x61, 0x6c,
  0x2f, 0x79, 0x5f, 0x70, 0x72, 0x65, 0x64, 0x2f, 0x42, 0x69, 0x61, 0x73,
  0x41, 0x64, 0x64, 0x3b, 0x53, 0x74, 0x61, 0x74, 0x65, 0x66, 0x75, 0x6c,
  0x50, 0x61, 0x72, 0x74, 0x69, 0x74, 0x69, 0x6f, 0x6e, 0x65, 0x64, 0x43,
  0x61, 0x6c, 0x6c, 0x2f, 0x73, 0x65, 0x71, 0x75, 0x65, 0x6e, 0x74, 0x69,
  0x61, 0x6c, 0x2f, 0x79, 0x5f, 0x70, 0x72, 0x65, 0x64, 0x2f, 0x42, 0x69,
  0x61, 0x73, 0x41, 0x64, 0x64, 0x00, 0x00, 0x00, 0x8c, 0xf0, 0xff, 0xff,
  0x00, 0x00, 0x0e, 0x00, 0x14, 0x00, 0x00, 0x00, 0x08, 0x00, 0x0c, 0x00,
  0x07, 0x00, 0x10, 0x00, 0x0e, 0x00, 0x00, 0x00, 0x00, 0x00, 0x00, 0x08,
  0x1c, 0x00, 0x00, 0x00, 0x10, 0x00, 0x00, 0x00, 0x04, 0x00, 0x00, 0x00,
  0xae, 0xfe, 0xff, 0xff, 0x00, 0x00, 0x00, 0x01, 0x01, 0x00, 0x00, 0x00,
  0x08, 0x00, 0x00, 0x00, 0x03, 0x00, 0x00, 0x00, 0x07, 0x00, 0x00, 0x00,
  0x05, 0x00, 0x00, 0x00, 0x02, 0x00, 0x00, 0x00, 0xca, 0xf0, 0xff, 0xff,
  0x10, 0x00, 0x00, 0x00, 0x09, 0x00, 0x00, 0x00, 0x14, 0x00, 0x00, 0x00,
  0xf8, 0x00, 0x00, 0x00, 0x02, 0x00, 0x00, 0x00, 0x01, 0x00, 0x00, 0x00,
  0x0a, 0x00, 0x00, 0x00, 0xe1, 0x00, 0x00, 0x00, 0x73, 0x65, 0x71, 0x75,
  0x65, 0x6e, 0x74, 0x69, 0x61, 0x6c, 0x2f, 0x64, 0x65, 0x6e, 0x73, 0x65,
  0x5f, 0x31, 0x2f, 0x4d, 0x61, 0x74, 0x4d, 0x75, 0x6c, 0x3b, 0x53, 0x74,
  0x61, 0x74, 0x65, 0x66, 0x75, 0x6c, 0x50, 0x61, 0x72, 0x74, 0x69, 0x74,
  0x69, 0x6f, 0x6e, 0x65, 0x64, 0x43, 0x61, 0x6c, 0x6c, 0x2f, 0x73, 0x65,
  0x71, 0x75, 0x65, 0x6e, 0x74, 0x69, 0x61, 0x6c, 0x2f, 0x64, 0x65, 0x6e,
  0x73, 0x65, 0x5f, 0x31, 0x2f, 0x4d, 0x61, 0x74, 0x4d, 0x75, 0x6c, 0x3b,
  0x73, 0x65, 0x71, 0x75, 0x65, 0x6e, 0x74, 0x69, 0x61, 0x6c, 0x2f, 0x64,
  0x65, 0x6e, 0x73, 0x65, 0x5f, 0x31, 0x2f, 0x52, 0x65, 0x6c, 0x75, 0x3b,
  0x53, 0x74, 0x61, 0x74, 0x65, 0x66, 0x75, 0x6c, 0x50, 0x61, 0x72, 0x74,
  0x69, 0x74, 0x69, 0x6f, 0x6e, 0x65, 0x64, 0x43, 0x61, 0x6c, 0x6c, 0x2f,
  0x73, 0x65, 0x71, 0x75, 0x65, 0x6e, 0x74, 0x69, 0x61, 0x6c, 0x2f, 0x64,
  0x65, 0x6e, 0x73, 0x65, 0x5f, 0x31, 0x2f, 0x52, 0x65, 0x6c, 0x75, 0x3b,
  0x73, 0x65, 0x71, 0x75, 0x65, 0x6e, 0x74, 0x69, 0x61, 0x6c, 0x2f, 0x64,
  0x65, 0x6e, 0x73, 0x65, 0x5f, 0x31, 0x2f, 0x42, 0x69, 0x61, 0x73, 0x41,
  0x64, 0x64, 0x3b, 0x53, 0x74, 0x61, 0x74, 0x65, 0x66, 0x75, 0x6c, 0x50,
  0x61, 0x72, 0x74, 0x69, 0x74, 0x69, 0x6f, 0x6e, 0x65, 0x64, 0x43, 0x61,
  0x6c, 0x6c, 0x2f, 0x73, 0x65, 0x71, 0x75, 0x65, 0x6e, 0x74, 0x69, 0x61,
  0x6c, 0x2f, 0x64, 0x65, 0x6e, 0x73, 0x65, 0x5f, 0x31, 0x2f, 0x42, 0x69,
  0x61, 0x73, 0x41, 0x64, 0x64, 0x00, 0x00, 0x00, 0xdc, 0xf1, 0xff, 0xff,
  0x00, 0x00, 0x0e, 0x00, 0x16, 0x00, 0x00, 0x00, 0x08, 0x00, 0x0c, 0x00,
  0x07, 0x00, 0x10, 0x00, 0x0e, 0x00, 0x00, 0x00, 0x00, 0x00, 0x00, 0x08,
  0x24, 0x00, 0x00, 0x00, 0x18, 0x00, 0x00, 0x00, 0x0c, 0x00, 0x00, 0x00,
  0x00, 0x00, 0x06, 0x00, 0x08, 0x00, 0x07, 0x00, 0x06, 0x00, 0x00, 0x00,
  0x00, 0x00, 0x00, 0x01, 0x01, 0x00, 0x00, 0x00, 0x07, 0x00, 0x00, 0x00,
  0x03, 0x00, 0x00, 0x00, 0x00, 0x00, 0x00, 0x00, 0x04, 0x00, 0x00, 0x00,
  0x01, 0x00, 0x00, 0x00, 0x0c, 0x00, 0x10, 0x00, 0x0b, 0x00, 0x00, 0x00,
  0x0c, 0x00, 0x04, 0x00, 0x0c, 0x00, 0x00, 0x00, 0x09, 0x00, 0x00, 0x00,
  0x00, 0x00, 0x00, 0x09, 0x01, 0x00, 0x00, 0x00, 0x3e, 0xf2, 0xff, 0xff,
  0x10, 0x00, 0x00, 0x00, 0x08, 0x00, 0x00, 0x00, 0x14, 0x00, 0x00, 0x00,
  0xec, 0x00, 0x00, 0x00, 0x02, 0x00, 0x00, 0x00, 0x01, 0x00, 0x00, 0x00,
  0x12, 0x00, 0x00, 0x00, 0xd5, 0x00, 0x00, 0x00, 0x73, 0x65, 0x71, 0x75,
  0x65, 0x6e, 0x74, 0x69, 0x61, 0x6c, 0x2f, 0x64, 0x65, 0x6e, 0x73, 0x65,
  0x2f, 0x4d, 0x61, 0x74, 0x4d, 0x75, 0x6c, 0x3b, 0x53, 0x74, 0x61, 0x74,
  0x65, 0x66, 0x75, 0x6c, 0x50, 0x61, 0x72, 0x74, 0x69, 0x74, 0x69, 0x6f,
  0x6e, 0x65, 0x64, 0x43, 0x61, 0x6c, 0x6c, 0x2f, 0x73, 0x65, 0x71, 0x75,
  0x65, 0x6e, 0x74, 0x69, 0x61, 0x6c, 0x2f, 0x64, 0x65, 0x6e, 0x73, 0x65,
  0x2f, 0x4d, 0x61, 0x74, 0x4d, 0x75, 0x6c, 0x3b, 0x73, 0x65, 0x71, 0x75,
  0x65, 0x6e, 0x74, 0x69, 0x61, 0x6c, 0x2f, 0x64, 0x65, 0x6e, 0x73, 0x65,
  0x2f, 0x52, 0x65, 0x6c, 0x75, 0x3b, 0x53, 0x74, 0x61, 0x74, 0x65, 0x66,
  0x75, 0x6c, 0x50, 0x61, 0x72, 0x74, 0x69, 0x74, 0x69, 0x6f, 0x6e, 0x65,
  0x64, 0x43, 0x61, 0x6c, 0x6c, 0x2f, 0x73, 0x65, 0x71, 0x75, 0x65, 0x6e,
  0x74, 0x69, 0x61, 0x6c, 0x2f, 0x64, 0x65, 0x6e, 0x73, 0x65, 0x2f, 0x52,
  0x65, 0x6c, 0x75, 0x3b, 0x73, 0x65, 0x71, 0x75, 0x65, 0x6e, 0x74, 0x69,
  0x61, 0x6c, 0x2f, 0x64, 0x65, 0x6e, 0x73, 0x65, 0x2f, 0x42, 0x69, 0x61,
  0x73, 0x41, 0x64, 0x64, 0x3b, 0x53, 0x74, 0x61, 0x74, 0x65, 0x66, 0x75,
  0x6c, 0x50, 0x61, 0x72, 0x74, 0x69, 0x74, 0x69, 0x6f, 0x6e, 0x65, 0x64,
  0x43, 0x61, 0x6c, 0x6c, 0x2f, 0x73, 0x65, 0x71, 0x75, 0x65, 0x6e, 0x74,
  0x69, 0x61, 0x6c, 0x2f, 0x64, 0x65, 0x6e, 0x73, 0x65, 0x2f, 0x42, 0x69,
  0x61, 0x73, 0x41, 0x64, 0x64, 0x00, 0x00, 0x00, 0xf8, 0xf2, 0xff, 0xff,
  0xce, 0xf3, 0xff, 0xff, 0x04, 0x00, 0x00, 0x00, 0x78, 0x00, 0x00, 0x00,
  0x97, 0xec, 0x25, 0xc0, 0xdc, 0xb1, 0x0d, 0xbf, 0xdc, 0xdb, 0x39, 0xbf,
  0x38, 0xb4, 0x55, 0x3f, 0x45, 0x26, 0xa0, 0xbf, 0x74, 0x56, 0xbc, 0xbf,
  0x72, 0x17, 0x8c, 0x3f, 0xa9, 0xf3, 0xa3, 0x3f, 0x52, 0xfd, 0x97, 0xbf,
  0x8d, 0x18, 0x67, 0x3f, 0x0f, 0x2f, 0x6e, 0x40, 0xca, 0x65, 0xbd, 0xbd,
  0x62, 0x3e, 0xa4, 0x3f, 0xba, 0xaa, 0x76, 0xbf, 0x5b, 0xda, 0x1d, 0xbe,
  0x97, 0x9f, 0x3f, 0x3e, 0xfb, 0x75, 0xfc, 0xbd, 0xcb, 0x4b, 0x79, 0x3f,
  0xfa, 0x6c, 0x5a, 0x3f, 0xfd, 0xe8, 0x19, 0x3f, 0x5a, 0xd8, 0x7a, 0xc0,
  0x70, 0x76, 0xf9, 0xbd, 0xd0, 0x24, 0x0e, 0xbf, 0x0a, 0x8a, 0x08, 0x3f,
  0x53, 0x91, 0xde, 0x3f, 0x4f, 0x87, 0x60, 0x3f, 0x5b, 0xff, 0x93, 0xbf,
  0xe3, 0x2f, 0x18, 0xc0, 0xe3, 0x34, 0x47, 0x3e, 0xd6, 0xc9, 0xfd, 0xbf,
  0xc2, 0xf3, 0xff, 0xff, 0x10, 0x00, 0x00, 0x00, 0x07, 0x00, 0x00, 0x00,
  0x14, 0x00, 0x00, 0x00, 0x60, 0x00, 0x00, 0x00, 0x02, 0x00, 0x00, 0x00,
  0x03, 0x00, 0x00, 0x00, 0x0a, 0x00, 0x00, 0x00, 0x49, 0x00, 0x00, 0x00,
  0x73, 0x65, 0x71, 0x75, 0x65, 0x6e, 0x74, 0x69, 0x61, 0x6c, 0x2f, 0x79,
  0x5f, 0x70, 0x72, 0x65, 0x64, 0x2f, 0x4d, 0x61, 0x74, 0x4d, 0x75, 0x6c,
  0x3b, 0x53, 0x74, 0x61, 0x74, 0x65, 0x66, 0x75, 0x6c, 0x50, 0x61, 0x72,
  0x74, 0x69, 0x74, 0x69, 0x6f, 0x6e, 0x65, 0x64, 0x43, 0x61, 0x6c, 0x6c,
  0x2f, 0x73, 0x65, 0x71, 0x75, 0x65, 0x6e, 0x74, 0x69, 0x61, 0x6c, 0x2f,
  0x79, 0x5f, 0x70, 0x72, 0x65, 0x64, 0x2f, 0x4d, 0x61, 0x74, 0x4d, 0x75,
  0x6c, 0x00, 0x00, 0x00, 0xf0, 0xf3, 0xff, 0xff, 0xc6, 0xf4, 0xff, 0xff,
  0x04, 0x00, 0x00, 0x00, 0xd0, 0x02, 0x00, 0x00, 0x9d, 0xf8, 0x2e, 0xbf,
  0x50, 0xbf, 0x3e, 0x3e, 0x90, 0x69, 0xec, 0x3e, 0xcb, 0x3f, 0x32, 0x3f,
  0x0f, 0x33, 0x27, 0x3f, 0x17, 0x45, 0xca, 0xbe, 0xde, 0x87, 0x22, 0x3e,
  0x1a, 0x97, 0x85, 0xbe, 0x54, 0x0b, 0x04, 0xbe, 0x1b, 0xfd, 0x06, 0xbf,
  0xb5, 0x10, 0x99, 0xbe, 0x6c, 0x95, 0x84, 0x3e, 0xff, 0x90, 0x99, 0x3d,
  0x49, 0xfc, 0xaf, 0x3e, 0x60, 0xc7, 0x96, 0x3c, 0x5d, 0x2c, 0x3e, 0xbe,
  0x29, 0xb2, 0xe1, 0xbd, 0x99, 0x46, 0xf0, 0x3e, 0x5f, 0x44, 0x9b, 0xbe,
  0xa7, 0x81, 0x3d, 0x3d, 0xf2, 0x8b, 0x65, 0xbe, 0x8b, 0xe8, 0x12, 0x3e,
  0x99, 0x9b, 0xd3, 0x3d, 0x72, 0x4e, 0x71, 0x3a, 0x23, 0x06, 0x81, 0x3e,
  0x54, 0x5b, 0x48, 0xbe, 0x20, 0x67, 0x4e, 0xbe, 0x72, 0x2b, 0xb3, 0xbe,
  0x97, 0x58, 0x3e, 0x3c, 0x61, 0x28, 0xb0, 0xbe, 0xfd, 0x71, 0xea, 0xbd,
  0x65, 0xe2, 0x18, 0xbe, 0xe8, 0x72, 0xaf, 0xbe, 0x3d, 0x10, 0xd7, 0xbe,
  0xe5, 0x1d, 0x56, 0xbe, 0x5c, 0x92, 0x95, 0x3e, 0x92, 0xdc, 0x33, 0xbf,
  0x53, 0x1d, 0x40, 0x3f, 0xc0, 0x7b, 0xfd, 0x3d, 0xd4, 0x4b, 0xd6, 0x3d,
  0x90, 0xd8, 0xbb, 0x3e, 0xb1, 0x6d, 0x57, 0x3e, 0x8d, 0xce, 0xf9, 0xbc,
  0xc9, 0x24, 0x6a, 0xbe, 0x48, 0xad, 0x30, 0x3f, 0x0d, 0x32, 0x76, 0x3e,
  0xb3, 0xeb, 0xf9, 0xbe, 0x0f, 0xbe, 0x84, 0xbe, 0x3d, 0x6d, 0x31, 0xbf,
  0x2e, 0xf6, 0x01, 0xbe, 0x23, 0x26, 0x7a, 0xbe, 0xe8, 0x1d, 0x57, 0xbe,
  0xe9, 0xe6, 0x65, 0xbf, 0x59, 0x57, 0x4b, 0x3f, 0x3e, 0x8d, 0x89, 0x3e,
  0xd4, 0x16, 0x00, 0xbf, 0x44, 0xd1, 0x48, 0xbe, 0xd6, 0xa6, 0x16, 0xbf,
  0x28, 0x3a, 0xed, 0x3c, 0x70, 0xb9, 0x8a, 0x3e, 0xa0, 0xda, 0x2c, 0x3f,
  0x3d, 0xbe, 0x01, 0x3f, 0xaf, 0x79, 0x72, 0x3e, 0x09, 0x4a, 0x84, 0xbd,
  0x5f, 0x29, 0x55, 0x3f, 0x1d, 0x0d, 0xba, 0x3e, 0xb5, 0x04, 0x55, 0x3f,
  0xa3, 0x20, 0xcd, 0xbe, 0x23, 0xb9, 0x11, 0x3f, 0xea, 0x68, 0x41, 0x3f,
  0x8b, 0x18, 0x82, 0x3f, 0x49, 0x64, 0x25, 0xbe, 0x9c, 0xbf, 0x00, 0x3f,
  0x47, 0xee, 0xb9, 0x3d, 0x62, 0x4e, 0x43, 0xbf, 0xf2, 0x47, 0xbc, 0xbf,
  0x26, 0xad, 0xb9, 0xbf, 0xd9, 0xc5, 0x89, 0x3f, 0x75, 0x9a, 0xf4, 0xbe,
  0x76, 0x1e, 0x8a, 0x3f, 0xd0, 0xe2, 0xd4, 0xbd, 0x5a, 0xc1, 0x61, 0x3f,
  0x76, 0xf7, 0x8a, 0x3e, 0x21, 0x19, 0x9a, 0xbf, 0xd6, 0xff, 0x39, 0xbf,
  0x5c, 0xbb, 0x76, 0x3f, 0x9b, 0xb3, 0x40, 0xbf, 0x24, 0xcd, 0x25, 0x3f,
  0xb7, 0x8d, 0x7c, 0x3e, 0x4c, 0x84, 0x1a, 0xbf, 0x59, 0xc3, 0x75, 0x3e,
  0xc0, 0x27, 0x3c, 0x3f, 0x38, 0xb5, 0x6f, 0xbf, 0xa3, 0xcb, 0x50, 0xbf,
  0xb3, 0x9e, 0xa1, 0xbf, 0x87, 0x26, 0x28, 0x3f, 0xfb, 0x25, 0x33, 0xbf,
  0x38, 0x44, 0x81, 0x3f, 0x99, 0x51, 0x26, 0x3f, 0xa0, 0x9b, 0x5e, 0xbe,
  0x6a, 0xdb, 0xc8, 0xbe, 0x1f, 0x3c, 0xf3, 0xbe, 0x78, 0xd0, 0x87, 0xbf,
  0x67, 0xac, 0x8a, 0x3f, 0xd5, 0xd4, 0x55, 0xbf, 0xb9, 0x3e, 0x27, 0x3f,
  0x5e, 0x91, 0x89, 0xbf, 0xd6, 0xf5, 0x50, 0xbe, 0x23, 0x50, 0xf0, 0x3e,
  0x17, 0xc5, 0x4a, 0xbe, 0x71, 0xb1, 0x15, 0x3f, 0x10, 0x86, 0xba, 0x3f,
  0x85, 0x1c, 0xba, 0x3f, 0x88, 0x22, 0x07, 0xbf, 0xd3, 0xc4, 0x01, 0x3f,
  0x49, 0x91, 0x20, 0xbf, 0x57, 0x12, 0xb7, 0x3e, 0xae, 0x36, 0x86, 0x3e,
  0xc6, 0xa4, 0xff, 0x3b, 0xfe, 0x6d, 0x81, 0x3f, 0x70, 0xec, 0xff, 0x3d,
  0x7f, 0x90, 0x27, 0xbf, 0xf0, 0x82, 0x6b, 0x3f, 0xad, 0x0f, 0x6c, 0xbe,
  0x34, 0x9b, 0xa7, 0x3e, 0xa8, 0x31, 0x8d, 0x3e, 0xc7, 0x9a, 0x30, 0xbf,
  0xc6, 0xbd, 0x42, 0x3f, 0x9c, 0xa2, 0xde, 0x3e, 0xb0, 0x25, 0x61, 0x3f,
  0x7f, 0x13, 0x96, 0x3f, 0x9d, 0x26, 0x01, 0xbf, 0xa5, 0x6c, 0xe4, 0x3d,
  0x6d, 0xcc, 0x8e, 0xbf, 0x6a, 0xa1, 0x16, 0x3f, 0x75, 0x5f, 0xab, 0xbc,
  0xb4, 0xdc, 0x84, 0x3d, 0x33, 0x4e, 0x9d, 0x3f, 0xfb, 0x6d, 0x2a, 0xbe,
  0xe5, 0x34, 0x01, 0xbf, 0x7c, 0x08, 0x17, 0x3f, 0xb4, 0x0b, 0x18, 0xbf,
  0xee, 0xa6, 0x0a, 0xbf, 0x94, 0xc0, 0x16, 0x3f, 0x2c, 0x23, 0x08, 0xbf,
  0xbd, 0x07, 0x35, 0x3f, 0x7b, 0x08, 0x63, 0xbe, 0xfb, 0x75, 0x94, 0x3d,
  0x0c, 0x06, 0x0a, 0x3e, 0xb8, 0x0c, 0xa2, 0x3e, 0xe4, 0xde, 0x4f, 0xbe,
  0x4f, 0xcf, 0x88, 0xbd, 0xa0, 0x5a, 0x35, 0x3e, 0xd7, 0xab, 0xc2, 0xbe,
  0xdc, 0x3a, 0x22, 0x3c, 0xa4, 0xc0, 0xaa, 0xbd, 0x2f, 0x7b, 0x8f, 0xbe,
  0xfb, 0x73, 0x62, 0x3f, 0x43, 0x94, 0x09, 0xbf, 0x1c, 0xd1, 0x54, 0x3e,
  0x6d, 0xbd, 0x8f, 0xbf, 0x93, 0x7e, 0x15, 0x3f, 0xb0, 0x76, 0x17, 0xbf,
  0x6d, 0x4e, 0xbe, 0x3e, 0x8e, 0x31, 0x21, 0x3f, 0x86, 0x84, 0xc1, 0x3f,
  0x43, 0xb8, 0x69, 0x3f, 0xd7, 0x6a, 0x1d, 0xbe, 0xa9, 0xd3, 0x02, 0x3f,
  0x5b, 0x8c, 0x85, 0xbf, 0x88, 0xbc, 0x08, 0x3f, 0x00, 0x28, 0xf8, 0xbe,
  0xfd, 0xfa, 0xad, 0xbe, 0xfa, 0xb2, 0x67, 0x3f, 0xfe, 0xdf, 0xf3, 0xbe,
  0x69, 0xd0, 0x1b, 0xbf, 0xcc, 0x39, 0xa2, 0x3e, 0x25, 0x79, 0xad, 0xbe,
  0xc5, 0x5f, 0x70, 0x3e, 0x0e, 0x68, 0x7c, 0x3f, 0x12, 0xf7, 0xff, 0xff,
  0x10, 0x00, 0x00, 0x00, 0x06, 0x00, 0x00, 0x00, 0x14, 0x00, 0x00, 0x00,
  0x60, 0x00, 0x00, 0x00, 0x02, 0x00, 0x00, 0x00, 0x0a, 0x00, 0x00, 0x00,
  0x12, 0x00, 0x00, 0x00, 0x4b, 0x00, 0x00, 0x00, 0x73, 0x65, 0x71, 0x75,
  0x65, 0x6e, 0x74, 0x69, 0x61, 0x6c, 0x2f, 0x64, 0x65, 0x6e, 0x73, 0x65,
  0x5f, 0x31, 0x2f, 0x4d, 0x61, 0x74, 0x4d, 0x75, 0x6c, 0x3b, 0x53, 0x74,
  0x61, 0x74, 0x65, 0x66, 0x75, 0x6c, 0x50, 0x61, 0x72, 0x74, 0x69, 0x74,
  0x69, 0x6f, 0x6e, 0x65, 0x64, 0x43, 0x61, 0x6c, 0x6c, 0x2f, 0x73, 0x65,
  0x71, 0x75, 0x65, 0x6e, 0x74, 0x69, 0x61, 0x6c, 0x2f, 0x64, 0x65, 0x6e,
  0x73, 0x65, 0x5f, 0x31, 0x2f, 0x4d, 0x61, 0x74, 0x4d, 0x75, 0x6c, 0x00,
  0x40, 0xf7, 0xff, 0xff, 0x16, 0xf8, 0xff, 0xff, 0x04, 0x00, 0x00, 0x00,
  0xc0, 0x06, 0x00, 0x00, 0x49, 0x91, 0xb5, 0xbd, 0x8c, 0x0c, 0x55, 0xbd,
  0x3d, 0x12, 0xff, 0x3e, 0xcd, 0x44, 0x0f, 0x3f, 0x2b, 0x13, 0xe7, 0xbf,
  0x52, 0x6b, 0x06, 0x3d, 0x8b, 0x08, 0xca, 0x3f, 0x1d, 0xda, 0xc6, 0x3f,
  0x16, 0xe0, 0x9d, 0x3f, 0x92, 0xff, 0x95, 0x3f, 0xe3, 0x89, 0x40, 0xbe,
  0x6d, 0x0a, 0x9b, 0xbb, 0x14, 0x40, 0x2a, 0xbe, 0xea, 0x66, 0x27, 0xbe,
  0x6c, 0xe7, 0x05, 0xbf, 0xbe, 0x91, 0x08, 0x3e, 0xfc, 0xba, 0x88, 0xc0,
  0xff, 0x25, 0x1b, 0x3d, 0x69, 0x27, 0x11, 0xbf, 0xa6, 0xb6, 0xd6, 0xbe,
  0x65, 0x7b, 0x35, 0xbe, 0xce, 0x1c, 0x32, 0xbf, 0xfb, 0xf0, 0x29, 0xc0,
  0xa4, 0x38, 0xd9, 0x3d, 0x1d, 0xae, 0x2e, 0x3e, 0xe5, 0x74, 0xc7, 0xba,
  0x8d, 0xd3, 0x1a, 0x3e, 0xd3, 0x1f, 0x7c, 0x3b, 0x99, 0x03, 0x0e, 0x40,
  0x60, 0xca, 0x2a, 0xbe, 0x0e, 0x83, 0x35, 0xbf, 0xec, 0xe4, 0x2a, 0xbf,
  0x55, 0x6e, 0x0b, 0xbf, 0x9b, 0x6e, 0x22, 0xbf, 0x58, 0xb4, 0x36, 0x3f,
  0x2e, 0x54, 0xa2, 0x3e, 0xbf, 0xcd, 0x16, 0x3e, 0x3c, 0x81, 0x4e, 0x3e,
  0x69, 0xbe, 0xbd, 0x3e, 0x4f, 0xd4, 0x0c, 0xbe, 0x6c, 0xf4, 0x6a, 0x40,
  0x55, 0xa2, 0x6f, 0x3c, 0xcd, 0x37, 0x9e, 0x3e, 0x19, 0x21, 0xbe, 0x3e,
  0x51, 0xe0, 0x4d, 0x3f, 0x85, 0xd3, 0x1b, 0x3f, 0x0c, 0x6d, 0x2d, 0x40,
  0x0f, 0x88, 0x59, 0xbd, 0x8f, 0x8a, 0x05, 0x3e, 0x14, 0xd5, 0xf6, 0xbd,
  0xb4, 0x6a, 0x45, 0x3d, 0x57, 0x51, 0xb6, 0x3e, 0xb6, 0x99, 0xa6, 0xbf,
  0xa5, 0x46, 0xc5, 0x3d, 0x7a, 0x78, 0xf0, 0xbf, 0x0f, 0x82, 0xf5, 0xbf,
  0x86, 0x57, 0xe6, 0xbf, 0x3e, 0x34, 0xd7, 0xbf, 0x53, 0x6f, 0x0c, 0x3f,
  0xf9, 0xc1, 0x32, 0x3e, 0x62, 0x49, 0x6c, 0x3d, 0x5f, 0xbd, 0xc0, 0x3c,
  0xf9, 0xe5, 0xec, 0x3d, 0xec, 0x4c, 0x2f, 0x3f, 0xd4, 0x26, 0x2f, 0x40,
  0x80, 0x0a, 0x3a, 0xbe, 0x03, 0x50, 0xdb, 0x3b, 0x34, 0xc0, 0xd1, 0xbd,
  0xc5, 0x5c, 0xd4, 0x3e, 0x70, 0xde, 0x1e, 0xbe, 0xa3, 0x0b, 0x3d, 0x3f,
  0x7c, 0xaa, 0xf5, 0xbd, 0x90, 0xee, 0x89, 0xbe, 0x38, 0x6a, 0x3b, 0x3e,
  0xf4, 0x7e, 0x86, 0x3e, 0xb1, 0x76, 0x84, 0xbe, 0xab, 0x27, 0x29, 0xbf,
  0x39, 0xbc, 0xd1, 0xbd, 0x05, 0xeb, 0xcb, 0xbf, 0x0e, 0x7f, 0x02, 0xc0,
  0xc2, 0x31, 0x11, 0xc0, 0x30, 0xc9, 0xfb, 0xbf, 0x35, 0x6b, 0x63, 0x3f,
  0x2d, 0x50, 0x3b, 0x3d, 0x85, 0xfb, 0x89, 0x3e, 0x21, 0xc1, 0xea, 0x3e,
  0x2e, 0xfa, 0x88, 0x3e, 0xdd, 0x1c, 0x52, 0x3e, 0x3b, 0x96, 0x47, 0x40,
  0x81, 0x71, 0x98, 0x3b, 0x7d, 0x1f, 0x6b, 0x3d, 0xf8, 0x44, 0x2b, 0x3e,
  0xcb, 0xed, 0xe3, 0x3e, 0x52, 0x16, 0x6f, 0x3e, 0x24, 0x72, 0xa4, 0x3f,
  0x03, 0x68, 0x66, 0xbe, 0x64, 0x6b, 0xf6, 0x3d, 0x2c, 0xae, 0x7b, 0xbe,
  0x1f, 0xc0, 0xe8, 0xbd, 0xa1, 0xc7, 0xd5, 0x3e, 0xe9, 0x37, 0x80, 0xbf,
  0xce, 0xa0, 0x8d, 0xbd, 0x29, 0xa9, 0xee, 0xbf, 0x69, 0xea, 0xd5, 0xbf,
  0xe5, 0x04, 0xe4, 0xbf, 0xf3, 0x94, 0xf5, 0xbf, 0x67, 0x80, 0x31, 0x3f,
  0xc2, 0x09, 0x6f, 0xbd, 0x07, 0x64, 0x6c, 0x3e, 0x99, 0x41, 0xe4, 0x3d,
  0xd7, 0x58, 0x84, 0x3e, 0xb8, 0x79, 0xa2, 0x3e, 0xab, 0xca, 0x59, 0x40,
  0xff, 0xb0, 0x00, 0x3e, 0x0c, 0x12, 0x29, 0x3e, 0x0d, 0xc2, 0x81, 0x3e,
  0x4d, 0xd2, 0x54, 0x3e, 0xb0, 0x9d, 0x84, 0xbe, 0x97, 0xcf, 0xa2, 0x3f,
  0x73, 0x69, 0x66, 0x3e, 0x99, 0x84, 0xf3, 0x3e, 0x3a, 0x37, 0x38, 0x3e,
  0x5d, 0x68, 0x99, 0x3e, 0xa9, 0xa6, 0x0b, 0x3f, 0xb8, 0x4a, 0xa0, 0x3f,
  0xad, 0x2f, 0xbd, 0xbc, 0x31, 0x19, 0x0b, 0x40, 0x0c, 0xd2, 0x19, 0x40,
  0x22, 0x9b, 0x05, 0x40, 0xa3, 0xfe, 0x23, 0x40, 0xd0, 0x28, 0x0d, 0xbf,
  0x92, 0xe8, 0xff, 0xbd, 0xed, 0x32, 0xe4, 0xbe, 0x29, 0x3d, 0x6c, 0x3d,
  0x2f, 0xc0, 0x6d, 0xbe, 0xb0, 0x5a, 0xc0, 0xbe, 0x11, 0x6c, 0x18, 0xc0,
  0x9a, 0x78, 0x16, 0xbd, 0x8e, 0x23, 0x16, 0x3f, 0x64, 0x3a, 0x56, 0x3e,
  0xc1, 0x0c, 0x39, 0x3f, 0x21, 0xc9, 0x34, 0x3f, 0x3a, 0x5b, 0x3a, 0xbe,
  0xab, 0x38, 0xc9, 0xbd, 0xa7, 0xbc, 0x95, 0xbd, 0xa9, 0xf5, 0xdb, 0x3e,
  0x4b, 0xe0, 0xce, 0xbd, 0x45, 0xcd, 0x80, 0x3e, 0x27, 0x99, 0xac, 0xbf,
  0x8d, 0xc1, 0x8d, 0xbd, 0x31, 0xe8, 0xc8, 0xbf, 0x28, 0xbd, 0xb0, 0xbf,
  0x17, 0xe9, 0xb5, 0xbf, 0x42, 0x8d, 0xa4, 0xbf, 0x38, 0xea, 0x2e, 0x3f,
  0x04, 0xdd, 0x7c, 0x3d, 0x7f, 0x2b, 0x80, 0x3e, 0x78, 0xa6, 0xa8, 0x3d,
  0x2b, 0x50, 0x20, 0x3f, 0xb6, 0xae, 0xd0, 0x3b, 0xf9, 0xed, 0x3d, 0x3f,
  0x15, 0x62, 0x94, 0xbe, 0x0e, 0x45, 0x05, 0xbf, 0x12, 0x72, 0xac, 0xbe,
  0x2c, 0x9c, 0x48, 0xbe, 0x8f, 0xb7, 0x5e, 0xbe, 0x37, 0x31, 0xa3, 0xbe,
  0x62, 0x09, 0x9d, 0xbe, 0x13, 0xbc, 0xc5, 0x3c, 0x2a, 0xf1, 0x5c, 0xbd,
  0x9f, 0x16, 0x20, 0xbe, 0x00, 0xba, 0xcd, 0x3b, 0x11, 0xcf, 0x47, 0xbf,
  0xce, 0x09, 0xc3, 0x3b, 0x8a, 0xab, 0xf4, 0x3f, 0xfd, 0xf5, 0xe7, 0x3f,
  0x73, 0xdc, 0xe8, 0x3f, 0x5b, 0x1a, 0xe3, 0x3f, 0x9b, 0x5c, 0x2f, 0xbf,
  0xce, 0x53, 0x0d, 0xbe, 0x45, 0x5c, 0x06, 0xba, 0x8c, 0x24, 0xa7, 0x3e,
  0x3a, 0xb9, 0x66, 0x3e, 0xc3, 0x82, 0x56, 0x3e, 0x72, 0xc1, 0x40, 0xc0,
  0x91, 0x2a, 0xbb, 0x3e, 0xcd, 0x50, 0x9f, 0x3d, 0x21, 0xb7, 0xd1, 0x3e,
  0x8d, 0xd1, 0x85, 0xba, 0x18, 0xa9, 0xae, 0x3e, 0xa3, 0x1b, 0x2c, 0xc0,
  0xe6, 0x65, 0x8d, 0xbe, 0xd8, 0x56, 0xad, 0x3e, 0x42, 0x29, 0x0d, 0x3f,
  0x0b, 0x5d, 0xd9, 0x3b, 0xeb, 0xf9, 0xc2, 0x3e, 0x77, 0xbf, 0xa9, 0x3f,
  0x48, 0xe0, 0x24, 0xbd, 0xc7, 0xc8, 0xaf, 0xbf, 0xac, 0x8f, 0x9d, 0xbf,
  0x81, 0x77, 0xbf, 0xbf, 0x00, 0xd6, 0xa8, 0xbf, 0x2c, 0xe7, 0x19, 0x3f,
  0x9a, 0xf6, 0xc3, 0xbe, 0x6a, 0x58, 0xee, 0x3c, 0x6d, 0xa7, 0xb2, 0xbe,
  0x5c, 0x8c, 0xda, 0x3e, 0xdd, 0x22, 0xa5, 0xbc, 0x53, 0xd7, 0x62, 0x40,
  0xd3, 0x32, 0x7c, 0x3e, 0xdb, 0x6e, 0x0e, 0x3f, 0xfd, 0x45, 0x0b, 0x3f,
  0xdd, 0x9d, 0x2e, 0x3f, 0xd0, 0x21, 0x71, 0x3e, 0x9c, 0x2b, 0x1e, 0x40,
  0xc5, 0x03, 0xa5, 0x3d, 0x2c, 0xaa, 0x92, 0x3d, 0xf3, 0xae, 0xe7, 0x3e,
  0xa6, 0xf0, 0xab, 0x3c, 0xb3, 0x1c, 0x7b, 0x3e, 0xbf, 0xf4, 0x35, 0x3f,
  0x80, 0xdc, 0x53, 0x3e, 0xf2, 0x40, 0xac, 0x3f, 0xf7, 0xbe, 0xa7, 0x3f,
  0x35, 0xa4, 0xb3, 0x3f, 0xba, 0x27, 0xe5, 0x3f, 0x6c, 0xdc, 0x2e, 0xbe,
  0xfd, 0xca, 0x6b, 0x3e, 0x37, 0x04, 0xa6, 0xbe, 0x4a, 0xb3, 0x30, 0x3c,
  0x3c, 0x8e, 0xe8, 0xbe, 0xd7, 0x86, 0x51, 0xbe, 0xa6, 0x81, 0x47, 0xc0,
  0x83, 0x47, 0xba, 0xbe, 0x29, 0xe9, 0xd9, 0xbe, 0x88, 0xc3, 0x1f, 0x3d,
  0xde, 0x8c, 0x91, 0x3d, 0x68, 0xa9, 0x9f, 0xbe, 0x77, 0x4e, 0xe8, 0xbf,
  0xcc, 0x20, 0xf9, 0xbe, 0xd7, 0x44, 0xc9, 0xbd, 0x7e, 0xf6, 0xbb, 0x3e,
  0xc9, 0x7b, 0x10, 0x3e, 0x56, 0xea, 0xde, 0x3e, 0xc7, 0x4c, 0xf3, 0xbf,
  0x5f, 0x36, 0x26, 0xbe, 0x68, 0x8a, 0x50, 0x3f, 0x2b, 0xbe, 0x27, 0x3f,
  0x10, 0xe3, 0x63, 0x3f, 0xec, 0x91, 0x1e, 0x3f, 0xfd, 0x0c, 0x47, 0x3e,
  0xa5, 0xc4, 0xc1, 0xbd, 0x67, 0x97, 0x90, 0xbe, 0xde, 0x47, 0x78, 0x3d,
  0xb3, 0xd4, 0x22, 0xbe, 0xc8, 0x48, 0x1c, 0x3e, 0x66, 0x80, 0x64, 0xc0,
  0x08, 0x84, 0x1c, 0x3e, 0x45, 0xeb, 0x29, 0xbf, 0x77, 0xb3, 0xdc, 0xbe,
  0xd8, 0xe8, 0x1f, 0xbf, 0x6a, 0x5f, 0xee, 0xbe, 0x9d, 0x5c, 0x0d, 0xc0,
  0xbd, 0x6e, 0x53, 0x3d, 0x4d, 0xe6, 0xe0, 0x3e, 0x88, 0x47, 0x56, 0x3e,
  0x7d, 0xc0, 0x07, 0xbe, 0x40, 0xb7, 0x88, 0x3d, 0x3f, 0xe7, 0xa9, 0xbf,
  0xce, 0xca, 0x23, 0x3d, 0x83, 0xb0, 0xec, 0xbf, 0x35, 0xee, 0xe9, 0xbf,
  0x40, 0x82, 0xfd, 0xbf, 0x0c, 0x8e, 0xdc, 0xbf, 0x71, 0x96, 0x89, 0x3f,
  0xae, 0x49, 0xf0, 0xbc, 0x2a, 0x75, 0x54, 0xbe, 0x9a, 0x6f, 0x96, 0x3e,
  0x71, 0xdf, 0x50, 0x3e, 0x27, 0x09, 0x5e, 0xbe, 0xd4, 0x6d, 0x1a, 0x40,
  0xaf, 0xe5, 0x36, 0xbc, 0x23, 0x30, 0x6a, 0xbe, 0xcb, 0x14, 0xcf, 0xbe,
  0x0d, 0xe2, 0xcd, 0x3d, 0x17, 0x1a, 0x00, 0xbf, 0x85, 0x3a, 0x63, 0x3d,
  0xdd, 0x95, 0xc0, 0xbd, 0xe1, 0xd9, 0xf9, 0x3d, 0x37, 0xc7, 0xa8, 0xbe,
  0x01, 0x42, 0xf5, 0x3d, 0x59, 0x0a, 0x1e, 0xbe, 0x70, 0x61, 0xb9, 0x3e,
  0xe3, 0xd0, 0x31, 0xbd, 0xe3, 0x90, 0xce, 0xbe, 0x83, 0x37, 0xc9, 0xbd,
  0x49, 0x1f, 0x88, 0xbe, 0xa4, 0x2f, 0x51, 0xbd, 0xed, 0x74, 0x98, 0x3e,
  0xc6, 0xb1, 0x03, 0xbe, 0x4b, 0x8f, 0xad, 0x3e, 0x7e, 0xff, 0xc3, 0xbe,
  0x0f, 0x80, 0xc3, 0xbd, 0x3c, 0x65, 0x3b, 0x3e, 0x2c, 0xf6, 0x15, 0x3e,
  0x74, 0xf2, 0x75, 0x3e, 0x55, 0x98, 0xde, 0x3d, 0xbc, 0x5a, 0xa6, 0xbe,
  0x56, 0x48, 0x01, 0xbf, 0xed, 0x3f, 0x43, 0xbe, 0x8b, 0x07, 0x3d, 0x3d,
  0x5a, 0xc8, 0x9f, 0xbe, 0x6f, 0x88, 0x7d, 0x3e, 0xa6, 0xbd, 0xcc, 0x3e,
  0x59, 0xe8, 0x80, 0x3e, 0x84, 0x8e, 0xf5, 0x3d, 0x8b, 0x4f, 0xd5, 0x3f,
  0x86, 0x05, 0xaf, 0x3d, 0x87, 0xff, 0x0b, 0x40, 0x30, 0xa7, 0xff, 0x3f,
  0x73, 0x86, 0x0b, 0x40, 0xce, 0xdc, 0xf2, 0x3f, 0x44, 0xb2, 0x04, 0xbe,
  0x52, 0x85, 0xfa, 0xbd, 0x03, 0xf2, 0x5f, 0x3e, 0x5f, 0xa3, 0xbb, 0x3d,
  0xe0, 0xc1, 0x0e, 0x3e, 0xb6, 0x96, 0xbd, 0x3e, 0x95, 0xfb, 0x5b, 0xbf,
  0xbd, 0x7c, 0xf7, 0xbc, 0x25, 0x30, 0x1e, 0x3f, 0xfe, 0xd4, 0x5a, 0x3f,
  0xf1, 0x24, 0x34, 0x3f, 0x61, 0xf1, 0x5f, 0x3f, 0x6b, 0x1a, 0x54, 0x3f,
  0x66, 0x3e, 0xf9, 0xbd, 0x23, 0x0d, 0x8c, 0x3d, 0x3b, 0x98, 0x0e, 0x3f,
  0xc9, 0xc2, 0xa1, 0xbd, 0x27, 0x49, 0x8c, 0xbd, 0xc9, 0xc0, 0xdc, 0xbf,
  0xa8, 0xf3, 0x0a, 0x3e, 0xb4, 0xac, 0xb9, 0xbf, 0xf8, 0x25, 0xb3, 0xbf,
  0xdf, 0xb0, 0xa8, 0xbf, 0xe4, 0xc7, 0x91, 0xbf, 0x5a, 0x17, 0xfc, 0x3e,
  0x1a, 0xb7, 0x4d, 0xba, 0xe7, 0x0e, 0x13, 0x3f, 0x93, 0x63, 0x95, 0x3e,
  0xb2, 0x1b, 0x58, 0xbc, 0xb5, 0x34, 0x7f, 0xbd, 0x0c, 0x90, 0x50, 0xbe,
  0x90, 0xf3, 0xb4, 0x3e, 0x6c, 0xb9, 0x07, 0xbf, 0xc9, 0x95, 0x3a, 0xbe,
  0xcb, 0xe1, 0x0e, 0xbf, 0xfe, 0xef, 0xec, 0xbe, 0x6d, 0x13, 0x67, 0xbf,
  0x8a, 0x7f, 0xa9, 0xbc, 0xfa, 0xca, 0xde, 0xbc, 0x9a, 0xb4, 0x97, 0x3e,
  0xaf, 0x09, 0x3d, 0x3e, 0xd7, 0xc6, 0xc5, 0x3e, 0x0a, 0x27, 0x2b, 0xbe,
  0xfc, 0x2f, 0xbb, 0x3d, 0xa6, 0xa5, 0xe5, 0x3f, 0x5c, 0x20, 0x1a, 0x40,
  0x5f, 0x40, 0xd9, 0x3f, 0x55, 0x5e, 0xeb, 0x3f, 0x39, 0x34, 0x10, 0xbc,
  0xb3, 0x18, 0x89, 0x3e, 0x8f, 0xa1, 0xf2, 0x3d, 0xcc, 0x37, 0x98, 0xbe,
  0xc7, 0xcf, 0xd6, 0xbe, 0x8f, 0xb7, 0xac, 0x3d, 0xfb, 0x24, 0x6a, 0xc0,
  0x66, 0x71, 0x73, 0xbe, 0x01, 0xf0, 0x64, 0x3c, 0xbe, 0x1a, 0xbc, 0xbd,
  0x48, 0x06, 0xfa, 0x3d, 0xde, 0x55, 0x6b, 0x3e, 0xd3, 0x1a, 0xd3, 0xbf,
  0x01, 0x63, 0x87, 0xbd, 0x69, 0x2f, 0x6b, 0x3b, 0xc4, 0x95, 0x8e, 0xbd,
  0x8e, 0xc3, 0xa9, 0x3e, 0x7c, 0x3f, 0x68, 0x3b, 0x03, 0xfc, 0xd3, 0xbf,
  0xc2, 0xdb, 0x83, 0x3d, 0xc3, 0x3b, 0x72, 0xbf, 0x23, 0x37, 0x43, 0xbf,
  0xc8, 0x31, 0x72, 0xbf, 0xe0, 0xf7, 0x42, 0xbf, 0x31, 0xbf, 0xd2, 0x3e,
  0x78, 0x1e, 0x07, 0xbe, 0xd7, 0x48, 0x81, 0xbd, 0x0a, 0x7d, 0x85, 0x3e,
  0x5d, 0x08, 0xaf, 0xbd, 0xde, 0xc6, 0xe2, 0x3e, 0x0e, 0xd5, 0xdd, 0xbf,
  0xcb, 0x46, 0x2c, 0xbe, 0x2c, 0x4f, 0x50, 0xbf, 0x39, 0x83, 0x32, 0xbf,
  0xee, 0x43, 0x87, 0xbf, 0x8e, 0xd0, 0x69, 0xbf, 0xc6, 0x10, 0x06, 0xc0,
  0x54, 0x6a, 0xb1, 0xbd, 0x18, 0x44, 0xa4, 0xbd, 0xdf, 0xba, 0xde, 0x3e,
  0xc4, 0x62, 0x83, 0xbc, 0x7c, 0x3a, 0x9a, 0x3c, 0x67, 0x11, 0x4d, 0x3f,
  0x12, 0x6e, 0xae, 0x3e, 0x52, 0xe4, 0xb8, 0xbf, 0xfe, 0xee, 0xc2, 0xbf,
  0x62, 0xdc, 0xe6, 0xbf, 0x93, 0x25, 0x9a, 0xbf, 0xa9, 0xe1, 0x1c, 0x3f,
  0x85, 0x75, 0x5c, 0xbe, 0x4d, 0x5b, 0x0d, 0x3f, 0x8e, 0x2d, 0x47, 0x3e,
  0xb6, 0xe8, 0x90, 0x3e, 0x12, 0x05, 0xa4, 0x3c, 0xa9, 0xaf, 0x7c, 0x40,
  0x36, 0x2c, 0x85, 0xbd, 0x42, 0x60, 0x29, 0xbc, 0xe7, 0xe6, 0xc6, 0xbd,
  0xa8, 0x38, 0x19, 0x3e, 0x1c, 0x17, 0x0f, 0x3f, 0xb6, 0x7b, 0x07, 0x40,
  0x54, 0xbb, 0x68, 0xbe, 0x52, 0xfe, 0xff, 0xff, 0x10, 0x00, 0x00, 0x00,
  0x05, 0x00, 0x00, 0x00, 0x14, 0x00, 0x00, 0x00, 0x5c, 0x00, 0x00, 0x00,
  0x02, 0x00, 0x00, 0x00, 0x12, 0x00, 0x00, 0x00, 0x18, 0x00, 0x00, 0x00,
  0x47, 0x00, 0x00, 0x00, 0x73, 0x65, 0x71, 0x75, 0x65, 0x6e, 0x74, 0x69,
  0x61, 0x6c, 0x2f, 0x64, 0x65, 0x6e, 0x73, 0x65, 0x2f, 0x4d, 0x61, 0x74,
  0x4d, 0x75, 0x6c, 0x3b, 0x53, 0x74, 0x61, 0x74, 0x65, 0x66, 0x75, 0x6c,
  0x50, 0x61, 0x72, 0x74, 0x69, 0x74, 0x69, 0x6f, 0x6e, 0x65, 0x64, 0x43,
  0x61, 0x6c, 0x6c, 0x2f, 0x73, 0x65, 0x71, 0x75, 0x65, 0x6e, 0x74, 0x69,
  0x61, 0x6c, 0x2f, 0x64, 0x65, 0x6e, 0x73, 0x65, 0x2f, 0x4d, 0x61, 0x74,
  0x4d, 0x75, 0x6c, 0x00, 0x7c, 0xfe, 0xff, 0xff, 0x52, 0xff, 0xff, 0xff,
  0x04, 0x00, 0x00, 0x00, 0x0c, 0x00, 0x00, 0x00, 0xd2, 0x6f, 0x56, 0x3e,
  0x2b, 0x86, 0x10, 0xbd, 0x72, 0xcf, 0x5b, 0xbe, 0xda, 0xfe, 0xff, 0xff,
  0x10, 0x00, 0x00, 0x00, 0x04, 0x00, 0x00, 0x00, 0x10, 0x00, 0x00, 0x00,
  0x1c, 0x00, 0x00, 0x00, 0x01, 0x00, 0x00, 0x00, 0x03, 0x00, 0x00, 0x00,
  0x09, 0x00, 0x00, 0x00, 0x75, 0x6e, 0x6b, 0x6e, 0x6f, 0x77, 0x6e, 0x5f,
  0x34, 0x00, 0x00, 0x00, 0xc4, 0xfe, 0xff, 0xff, 0x9a, 0xff, 0xff, 0xff,
  0x04, 0x00, 0x00, 0x00, 0x28, 0x00, 0x00, 0x00, 0x41, 0x2f, 0x4f, 0x3e,
  0x80, 0x56, 0x2b, 0xbd, 0xc8, 0xb5, 0xf5, 0x3d, 0x6c, 0x75, 0xd0, 0x3d,
  0x4d, 0xd7, 0xe3, 0xbd, 0x40, 0x60, 0x85, 0xbe, 0x63, 0x09, 0xc9, 0x3e,
  0x12, 0xa6, 0xab, 0x3e, 0xfd, 0x6c, 0xf8, 0xbc, 0x80, 0x16, 0x85, 0x3e,
  0x3e, 0xff, 0xff, 0xff, 0x10, 0x00, 0x00, 0x00, 0x03, 0x00, 0x00, 0x00,
  0x10, 0x00, 0x00, 0x00, 0x1c, 0x00, 0x00, 0x00, 0x01, 0x00, 0x00, 0x00,
  0x0a, 0x00, 0x00, 0x00, 0x09, 0x00, 0x00, 0x00, 0x75, 0x6e, 0x6b, 0x6e,
  0x6f, 0x77, 0x6e, 0x5f, 0x32, 0x00, 0x00, 0x00, 0x74, 0xff, 0xff, 0xff,
  0x00, 0x00, 0x06, 0x00, 0x08, 0x00, 0x04, 0x00, 0x06, 0x00, 0x00, 0x00,
  0x04, 0x00, 0x00, 0x00, 0x48, 0x00, 0x00, 0x00, 0xac, 0xc2, 0x48, 0x3e,
  0x01, 0xb6, 0xee, 0x3d, 0xff, 0x41, 0xba, 0x3e, 0x44, 0xda, 0xda, 0x3e,
  0x6d, 0xad, 0xc7, 0x3e, 0x8f, 0x10, 0x09, 0xbe, 0x6c, 0x45, 0xe5, 0x3e,
  0x8c, 0x1c, 0x2f, 0xbd, 0xc2, 0x81, 0xfa, 0x3e, 0x7e, 0x36, 0xc5, 0x3d,
  0xe5, 0x37, 0xa9, 0x3e, 0xa2, 0xd6, 0x03, 0x3f, 0x29, 0x75, 0x86, 0xbc,
  0xfa, 0x1d, 0x8a, 0xbe, 0x89, 0xd3, 0x1c, 0x3f, 0x51, 0x61, 0x18, 0x3d,
  0x81, 0x22, 0x05, 0x3f, 0xd7, 0x2e, 0x89, 0x3e, 0xca, 0xff, 0xff, 0xff,
  0x10, 0x00, 0x00, 0x00, 0x02, 0x00, 0x00, 0x00, 0x10, 0x00, 0x00, 0x00,
  0x20, 0x00, 0x00, 0x00, 0x01, 0x00, 0x00, 0x00, 0x12, 0x00, 0x00, 0x00,
  0x09, 0x00, 0x00, 0x00, 0x75, 0x6e, 0x6b, 0x6e, 0x6f, 0x77, 0x6e, 0x5f,
  0x30, 0x00, 0x00, 0x00, 0x04, 0x00, 0x06, 0x00, 0x04, 0x00, 0x00, 0x00,
  0x00, 0x00, 0x0e, 0x00, 0x14, 0x00, 0x04, 0x00, 0x00, 0x00, 0x08, 0x00,
  0x0c, 0x00, 0x10, 0x00, 0x0e, 0x00, 0x00, 0x00, 0x10, 0x00, 0x00, 0x00,
  0x01, 0x00, 0x00, 0x00, 0x14, 0x00, 0x00, 0x00, 0x20, 0x00, 0x00, 0x00,
  0x02, 0x00, 0x00, 0x00, 0x01, 0x00, 0x00, 0x00, 0x18, 0x00, 0x00, 0x00,
  0x0b, 0x00, 0x00, 0x00, 0x64, 0x65, 0x6e, 0x73, 0x65, 0x5f, 0x69, 0x6e,
  0x70, 0x75, 0x74, 0x00, 0xfc, 0xff, 0xff, 0xff, 0x04, 0x00, 0x04, 0x00,
  0x04, 0x00, 0x00, 0x00
};
unsigned int trained_tflite_len = 4780;
