const unsigned char trained_tflite[] = {
  0x1c, 0x00, 0x00, 0x00, 0x54, 0x46, 0x4c, 0x33, 0x14, 0x00, 0x20, 0x00,
  0x04, 0x00, 0x08, 0x00, 0x0c, 0x00, 0x10, 0x00, 0x14, 0x00, 0x00, 0x00,
  0x18, 0x00, 0x1c, 0x00, 0x14, 0x00, 0x00, 0x00, 0x03, 0x00, 0x00, 0x00,
  0x18, 0x00, 0x00, 0x00, 0x20, 0x00, 0x00, 0x00, 0xb0, 0x00, 0x00, 0x00,
  0x20, 0x00, 0x00, 0x00, 0x58, 0x00, 0x00, 0x00, 0x50, 0x00, 0x00, 0x00,
  0x02, 0x00, 0x00, 0x00, 0x50, 0x04, 0x00, 0x00, 0x70, 0x01, 0x00, 0x00,
  0x01, 0x00, 0x00, 0x00, 0xb4, 0x00, 0x00, 0x00, 0x0d, 0x00, 0x00, 0x00,
  0x4c, 0x0d, 0x00, 0x00, 0x48, 0x0d, 0x00, 0x00, 0x8c, 0x0c, 0x00, 0x00,
  0x2c, 0x0c, 0x00, 0x00, 0xe0, 0x0b, 0x00, 0x00, 0xa0, 0x07, 0x00, 0x00,
  0xfc, 0x05, 0x00, 0x00, 0x30, 0x05, 0x00, 0x00, 0x2c, 0x0d, 0x00, 0x00,
  0x28, 0x0d, 0x00, 0x00, 0x24, 0x0d, 0x00, 0x00, 0x20, 0x0d, 0x00, 0x00,
  0x3c, 0x00, 0x00, 0x00, 0x00, 0x00, 0x00, 0x00, 0x01, 0x00, 0x00, 0x00,
  0x0c, 0x00, 0x00, 0x00, 0x08, 0x00, 0x0c, 0x00, 0x04, 0x00, 0x08, 0x00,
  0x08, 0x00, 0x00, 0x00, 0x08, 0x00, 0x00, 0x00, 0x0c, 0x00, 0x00, 0x00,
  0x13, 0x00, 0x00, 0x00, 0x6d, 0x69, 0x6e, 0x5f, 0x72, 0x75, 0x6e, 0x74,
  0x69, 0x6d, 0x65, 0x5f, 0x76, 0x65, 0x72, 0x73, 0x69, 0x6f, 0x6e, 0x00,
  0xde, 0xf3, 0xff, 0xff, 0x04, 0x00, 0x00, 0x00, 0x10, 0x00, 0x00, 0x00,
  0x31, 0x2e, 0x35, 0x2e, 0x30, 0x00, 0x00, 0x00, 0x00, 0x00, 0x00, 0x00,
  0x00, 0x00, 0x00, 0x00, 0x0f, 0x00, 0x00, 0x00, 0x4d, 0x4c, 0x49, 0x52,
  0x20, 0x43, 0x6f, 0x6e, 0x76, 0x65, 0x72, 0x74, 0x65, 0x64, 0x2e, 0x00,
  0x00, 0x00, 0x0e, 0x00, 0x18, 0x00, 0x04, 0x00, 0x08, 0x00, 0x0c, 0x00,
  0x10, 0x00, 0x14, 0x00, 0x0e, 0x00, 0x00, 0x00, 0x14, 0x00, 0x00, 0x00,
  0x40, 0x00, 0x00, 0x00, 0x44, 0x00, 0x00, 0x00, 0x48, 0x00, 0x00, 0x00,
  0x58, 0x00, 0x00, 0x00, 0x0b, 0x00, 0x00, 0x00, 0x4c, 0x0c, 0x00, 0x00,
  0x04, 0x0c, 0x00, 0x00, 0x8c, 0x0b, 0x00, 0x00, 0x34, 0x0b, 0x00, 0x00,
  0xa8, 0x0a, 0x00, 0x00, 0x64, 0x06, 0x00, 0x00, 0xc0, 0x04, 0x00, 0x00,
  0x68, 0x03, 0x00, 0x00, 0xf0, 0x01, 0x00, 0x00, 0xe8, 0x00, 0x00, 0x00,
  0x80, 0x00, 0x00, 0x00, 0x01, 0x00, 0x00, 0x00, 0x00, 0x00, 0x00, 0x00,
  0x01, 0x00, 0x00, 0x00, 0x0a, 0x00, 0x00, 0x00, 0x04, 0x00, 0x00, 0x00,
  0xec, 0x02, 0x00, 0x00, 0x98, 0x01, 0x00, 0x00, 0x94, 0x00, 0x00, 0x00,
  0x1c, 0x00, 0x00, 0x00, 0x04, 0x00, 0x00, 0x00, 0x6d, 0x61, 0x69, 0x6e,
  0x00, 0x00, 0x0e, 0x00, 0x18, 0x00, 0x08, 0x00, 0x0c, 0x00, 0x10, 0x00,
  0x07, 0x00, 0x14, 0x00, 0x0e, 0x00, 0x00, 0x00, 0x00, 0x00, 0x00, 0x09,
  0x01, 0x00, 0x00, 0x00, 0x1c, 0x00, 0x00, 0x00, 0x10, 0x00, 0x00, 0x00,
  0x04, 0x00, 0x00, 0x00, 0xba, 0xf4, 0xff, 0xff, 0x00, 0x00, 0x80, 0x3f,
  0x01, 0x00, 0x00, 0x00, 0x0a, 0x00, 0x00, 0x00, 0x01, 0x00, 0x00, 0x00,
  0x09, 0x00, 0x00, 0x00, 0x30, 0xfd, 0xff, 0xff, 0x19, 0x00, 0x00, 0x00,
  0x00, 0x00, 0x00, 0x19, 0x01, 0x00, 0x00, 0x00, 0x6a, 0xf4, 0xff, 0xff,
  0x10, 0x00, 0x00, 0x00, 0x0b, 0x00, 0x00, 0x00, 0x14, 0x00, 0x00, 0x00,
  0x20, 0x00, 0x00, 0x00, 0x02, 0x00, 0x00, 0x00, 0x01, 0x00, 0x00, 0x00,
  0x03, 0x00, 0x00, 0x00, 0x08, 0x00, 0x00, 0x00, 0x49, 0x64, 0x65, 0x6e,
  0x74, 0x69, 0x74, 0x79, 0x00, 0x00, 0x00, 0x00, 0x58, 0xf4, 0xff, 0xff,
  0x0e, 0xff, 0xff, 0xff, 0x00, 0x00, 0x00, 0x08, 0x18, 0x00, 0x00, 0x00,
  0x0c, 0x00, 0x00, 0x00, 0x04, 0x00, 0x00, 0x00, 0x70, 0xf4, 0xff, 0xff,
  0x01, 0x00, 0x00, 0x00, 0x09, 0x00, 0x00, 0x00, 0x03, 0x00, 0x00, 0x00,
  0x08, 0x00, 0x00, 0x00, 0x06, 0x00, 0x00, 0x00, 0x03, 0x00, 0x00, 0x00,
  0xce, 0xf4, 0xff, 0xff, 0x10, 0x00, 0x00, 0x00, 0x0a, 0x00, 0x00, 0x00,
  0x14, 0x00, 0x00, 0x00, 0xac, 0x00, 0x00, 0x00, 0x02, 0x00, 0x00, 0x00,
  0x01, 0x00, 0x00, 0x00, 0x03, 0x00, 0x00, 0x00, 0x95, 0x00, 0x00, 0x00,
  0x73, 0x65, 0x71, 0x75, 0x65, 0x6e, 0x74, 0x69, 0x61, 0x6c, 0x2f, 0x79,
  0x5f, 0x70, 0x72, 0x65, 0x64, 0x2f, 0x4d, 0x61, 0x74, 0x4d, 0x75, 0x6c,
  0x3b, 0x53, 0x74, 0x61, 0x74, 0x65, 0x66, 0x75, 0x6c, 0x50, 0x61, 0x72,
  0x74, 0x69, 0x74, 0x69, 0x6f, 0x6e, 0x65, 0x64, 0x43, 0x61, 0x6c, 0x6c,
  0x2f, 0x73, 0x65, 0x71, 0x75, 0x65, 0x6e, 0x74, 0x69, 0x61, 0x6c, 0x2f,
  0x79, 0x5f, 0x70, 0x72, 0x65, 0x64, 0x2f, 0x4d, 0x61, 0x74, 0x4d, 0x75,
  0x6c, 0x3b, 0x73, 0x65, 0x71, 0x75, 0x65, 0x6e, 0x74, 0x69, 0x61, 0x6c,
  0x2f, 0x79, 0x5f, 0x70, 0x72, 0x65, 0x64, 0x2f, 0x42, 0x69, 0x61, 0x73,
  0x41, 0x64, 0x64, 0x3b, 0x53, 0x74, 0x61, 0x74, 0x65, 0x66, 0x75, 0x6c,
  0x50, 0x61, 0x72, 0x74, 0x69, 0x74, 0x69, 0x6f, 0x6e, 0x65, 0x64, 0x43,
  0x61, 0x6c, 0x6c, 0x2f, 0x73, 0x65, 0x71, 0x75, 0x65, 0x6e, 0x74, 0x69,
  0x61, 0x6c, 0x2f, 0x79, 0x5f, 0x70, 0x72, 0x65, 0x64, 0x2f, 0x42, 0x69,
  0x61, 0x73, 0x41, 0x64, 0x64, 0x00, 0x00, 0x00, 0x94, 0xf5, 0xff, 0xff,
  0x00, 0x00, 0x0e, 0x00, 0x14, 0x00, 0x00, 0x00, 0x08, 0x00, 0x0c, 0x00,
  0x07, 0x00, 0x10, 0x00, 0x0e, 0x00, 0x00, 0x00, 0x00, 0x00, 0x00, 0x08,
  0x1c, 0x00, 0x00, 0x00, 0x10, 0x00, 0x00, 0x00, 0x04, 0x00, 0x00, 0x00,
  0xae, 0xfe, 0xff, 0xff, 0x00, 0x00, 0x00, 0x01, 0x01, 0x00, 0x00, 0x00,
  0x08, 0x00, 0x00, 0x00, 0x03, 0x00, 0x00, 0x00, 0x07, 0x00, 0x00, 0x00,
  0x05, 0x00, 0x00, 0x00, 0x02, 0x00, 0x00, 0x00, 0xd2, 0xf5, 0xff, 0xff,
  0x10, 0x00, 0x00, 0x00, 0x09, 0x00, 0x00, 0x00, 0x14, 0x00, 0x00, 0x00,
  0xf8, 0x00, 0x00, 0x00, 0x02, 0x00, 0x00, 0x00, 0x01, 0x00, 0x00, 0x00,
  0x06, 0x00, 0x00, 0x00, 0xe1, 0x00, 0x00, 0x00, 0x73, 0x65, 0x71, 0x75,
  0x65, 0x6e, 0x74, 0x69, 0x61, 0x6c, 0x2f, 0x64, 0x65, 0x6e, 0x73, 0x65,
  0x5f, 0x31, 0x2f, 0x4d, 0x61, 0x74, 0x4d, 0x75, 0x6c, 0x3b, 0x53, 0x74,
  0x61, 0x74, 0x65, 0x66, 0x75, 0x6c, 0x50, 0x61, 0x72, 0x74, 0x69, 0x74,
  0x69, 0x6f, 0x6e, 0x65, 0x64, 0x43, 0x61, 0x6c, 0x6c, 0x2f, 0x73, 0x65,
  0x71, 0x75, 0x65, 0x6e, 0x74, 0x69, 0x61, 0x6c, 0x2f, 0x64, 0x65, 0x6e,
  0x73, 0x65, 0x5f, 0x31, 0x2f, 0x4d, 0x61, 0x74, 0x4d, 0x75, 0x6c, 0x3b,
  0x73, 0x65, 0x71, 0x75, 0x65, 0x6e, 0x74, 0x69, 0x61, 0x6c, 0x2f, 0x64,
  0x65, 0x6e, 0x73, 0x65, 0x5f, 0x31, 0x2f, 0x52, 0x65, 0x6c, 0x75, 0x3b,
  0x53, 0x74, 0x61, 0x74, 0x65, 0x66, 0x75, 0x6c, 0x50, 0x61, 0x72, 0x74,
  0x69, 0x74, 0x69, 0x6f, 0x6e, 0x65, 0x64, 0x43, 0x61, 0x6c, 0x6c, 0x2f,
  0x73, 0x65, 0x71, 0x75, 0x65, 0x6e, 0x74, 0x69, 0x61, 0x6c, 0x2f, 0x64,
  0x65, 0x6e, 0x73, 0x65, 0x5f, 0x31, 0x2f, 0x52, 0x65, 0x6c, 0x75, 0x3b,
  0x73, 0x65, 0x71, 0x75, 0x65, 0x6e, 0x74, 0x69, 0x61, 0x6c, 0x2f, 0x64,
  0x65, 0x6e, 0x73, 0x65, 0x5f, 0x31, 0x2f, 0x42, 0x69, 0x61, 0x73, 0x41,
  0x64, 0x64, 0x3b, 0x53, 0x74, 0x61, 0x74, 0x65, 0x66, 0x75, 0x6c, 0x50,
  0x61, 0x72, 0x74, 0x69, 0x74, 0x69, 0x6f, 0x6e, 0x65, 0x64, 0x43, 0x61,
  0x6c, 0x6c, 0x2f, 0x73, 0x65, 0x71, 0x75, 0x65, 0x6e, 0x74, 0x69, 0x61,
  0x6c, 0x2f, 0x64, 0x65, 0x6e, 0x73, 0x65, 0x5f, 0x31, 0x2f, 0x42, 0x69,
  0x61, 0x73, 0x41, 0x64, 0x64, 0x00, 0x00, 0x00, 0xe4, 0xf6, 0xff, 0xff,
  0x00, 0x00, 0x0e, 0x00, 0x16, 0x00, 0x00, 0x00, 0x08, 0x00, 0x0c, 0x00,
  0x07, 0x00, 0x10, 0x00, 0x0e, 0x00, 0x00, 0x00, 0x00, 0x00, 0x00, 0x08,
  0x24, 0x00, 0x00, 0x00, 0x18, 0x00, 0x00, 0x00, 0x0c, 0x00, 0x00, 0x00,
  0x00, 0x00, 0x06, 0x00, 0x08, 0x00, 0x07, 0x00, 0x06, 0x00, 0x00, 0x00,
  0x00, 0x00, 0x00, 0x01, 0x01, 0x00, 0x00, 0x00, 0x07, 0x00, 0x00, 0x00,
  0x03, 0x00, 0x00, 0x00, 0x00, 0x00, 0x00, 0x00, 0x04, 0x00, 0x00, 0x00,
  0x01, 0x00, 0x00, 0x00, 0x0c, 0x00, 0x10, 0x00, 0x0b, 0x00, 0x00, 0x00,
  0x0c, 0x00, 0x04, 0x00, 0x0c, 0x00, 0x00, 0x00, 0x09, 0x00, 0x00, 0x00,
  0x00, 0x00, 0x00, 0x09, 0x01, 0x00, 0x00, 0x00, 0x46, 0xf7, 0xff, 0xff,
  0x10, 0x00, 0x00, 0x00, 0x08, 0x00, 0x00, 0x00, 0x14, 0x00, 0x00, 0x00,
  0xec, 0x00, 0x00, 0x00, 0x02, 0x00, 0x00, 0x00, 0x01, 0x00, 0x00, 0x00,
  0x0c, 0x00, 0x00, 0x00, 0xd5, 0x00, 0x00, 0x00, 0x73, 0x65, 0x71, 0x75,
  0x65, 0x6e, 0x74, 0x69, 0x61, 0x6c, 0x2f, 0x64, 0x65, 0x6e, 0x73, 0x65,
  0x2f, 0x4d, 0x61, 0x74, 0x4d, 0x75, 0x6c, 0x3b, 0x53, 0x74, 0x61, 0x74,
  0x65, 0x66, 0x75, 0x6c, 0x50, 0x61, 0x72, 0x74, 0x69, 0x74, 0x69, 0x6f,
  0x6e, 0x65, 0x64, 0x43, 0x61, 0x6c, 0x6c, 0x2f, 0x73, 0x65, 0x71, 0x75,
  0x65, 0x6e, 0x74, 0x69, 0x61, 0x6c, 0x2f, 0x64, 0x65, 0x6e, 0x73, 0x65,
  0x2f, 0x4d, 0x61, 0x74, 0x4d, 0x75, 0x6c, 0x3b, 0x73, 0x65, 0x71, 0x75,
  0x65, 0x6e, 0x74, 0x69, 0x61, 0x6c, 0x2f, 0x64, 0x65, 0x6e, 0x73, 0x65,
  0x2f, 0x52, 0x65, 0x6c, 0x75, 0x3b, 0x53, 0x74, 0x61, 0x74, 0x65, 0x66,
  0x75, 0x6c, 0x50, 0x61, 0x72, 0x74, 0x69, 0x74, 0x69, 0x6f, 0x6e, 0x65,
  0x64, 0x43, 0x61, 0x6c, 0x6c, 0x2f, 0x73, 0x65, 0x71, 0x75, 0x65, 0x6e,
  0x74, 0x69, 0x61, 0x6c, 0x2f, 0x64, 0x65, 0x6e, 0x73, 0x65, 0x2f, 0x52,
  0x65, 0x6c, 0x75, 0x3b, 0x73, 0x65, 0x71, 0x75, 0x65, 0x6e, 0x74, 0x69,
  0x61, 0x6c, 0x2f, 0x64, 0x65, 0x6e, 0x73, 0x65, 0x2f, 0x42, 0x69, 0x61,
  0x73, 0x41, 0x64, 0x64, 0x3b, 0x53, 0x74, 0x61, 0x74, 0x65, 0x66, 0x75,
  0x6c, 0x50, 0x61, 0x72, 0x74, 0x69, 0x74, 0x69, 0x6f, 0x6e, 0x65, 0x64,
  0x43, 0x61, 0x6c, 0x6c, 0x2f, 0x73, 0x65, 0x71, 0x75, 0x65, 0x6e, 0x74,
  0x69, 0x61, 0x6c, 0x2f, 0x64, 0x65, 0x6e, 0x73, 0x65, 0x2f, 0x42, 0x69,
  0x61, 0x73, 0x41, 0x64, 0x64, 0x00, 0x00, 0x00, 0x00, 0xf8, 0xff, 0xff,
  0xbe, 0xf8, 0xff, 0xff, 0x04, 0x00, 0x00, 0x00, 0x48, 0x00, 0x00, 0x00,
  0xbe, 0xc1, 0xed, 0xbe, 0xe1, 0x96, 0x39, 0xbf, 0x39, 0xbc, 0x38, 0xbf,
  0x42, 0xb4, 0x30, 0x3f, 0xe9, 0x53, 0xdc, 0x3e, 0x72, 0xa4, 0xc9, 0xbe,
  0xd3, 0x4c, 0xbf, 0x3e, 0xf8, 0x19, 0x92, 0xbd, 0x40, 0x8a, 0x2b, 0x3f,
  0xa1, 0x78, 0x86, 0xbf, 0x74, 0x79, 0x82, 0xbe, 0x63, 0xf0, 0xb1, 0x3e,
  0xea, 0x87, 0x32, 0xbf, 0x68, 0xfb, 0x9a, 0xbd, 0xe0, 0xe8, 0x44, 0x3d,
  0x43, 0x9a, 0xcd, 0x3e, 0x7d, 0x89, 0x74, 0x3f, 0x30, 0xc7, 0xac, 0x3d,
  0x9a, 0xf8, 0xff, 0xff, 0x10, 0x00, 0x00, 0x00, 0x07, 0x00, 0x00, 0x00,
  0x14, 0x00, 0x00, 0x00, 0x60, 0x00, 0x00, 0x00, 0x02, 0x00, 0x00, 0x00,
  0x03, 0x00, 0x00, 0x00, 0x06, 0x00, 0x00, 0x00, 0x49, 0x00, 0x00, 0x00,
  0x73, 0x65, 0x71, 0x75, 0x65, 0x6e, 0x74, 0x69, 0x61, 0x6c, 0x2f, 0x79,
  0x5f, 0x70, 0x72, 0x65, 0x64, 0x2f, 0x4d, 0x61, 0x74, 0x4d, 0x75, 0x6c,
  0x3b, 0x53, 0x74, 0x61, 0x74, 0x65, 0x66, 0x75, 0x6c, 0x50, 0x61, 0x72,
  0x74, 0x69, 0x74, 0x69, 0x6f, 0x6e, 0x65, 0x64, 0x43, 0x61, 0x6c, 0x6c,
  0x2f, 0x73, 0x65, 0x71, 0x75, 0x65, 0x6e, 0x74, 0x69, 0x61, 0x6c, 0x2f,
  0x79, 0x5f, 0x70, 0x72, 0x65, 0x64, 0x2f, 0x4d, 0x61, 0x74, 0x4d, 0x75,
  0x6c, 0x00, 0x00, 0x00, 0xc8, 0xf8, 0xff, 0xff, 0x86, 0xf9, 0xff, 0xff,
  0x04, 0x00, 0x00, 0x00, 0x20, 0x01, 0x00, 0x00, 0x5c, 0xd3, 0xca, 0xbe,
  0x99, 0xc8, 0xc3, 0x3e, 0x32, 0x44, 0xc4, 0x3e, 0x2c, 0xa5, 0xab, 0x3e,
  0xc2, 0x34, 0x99, 0xbe, 0xad, 0xa9, 0x8f, 0x3e, 0x0c, 0x36, 0xdf, 0x3e,
  0x54, 0x5c, 0xb5, 0x3e, 0x5a, 0x1d, 0x04, 0x3f, 0xc5, 0x24, 0xd3, 0x3e,
  0xba, 0x36, 0x19, 0xbe, 0x8c, 0x99, 0x02, 0x3d, 0xdf, 0x78, 0xb9, 0xbe,
  0xf8, 0x08, 0x9b, 0xbe, 0x38, 0x31, 0xd0, 0xbd, 0xa8, 0x1a, 0x36, 0x3e,
  0x90, 0xea, 0xe1, 0xbe, 0x84, 0x80, 0x5c, 0x3e, 0x14, 0x64, 0x07, 0xbf,
  0xf8, 0xbf, 0xa2, 0xbd, 0x58, 0x8b, 0xcf, 0xbe, 0x50, 0xcc, 0xdd, 0xbd,
  0xb2, 0x51, 0xc6, 0x3e, 0x4c, 0xc1, 0x27, 0xbe, 0x64, 0x49, 0xde, 0xbe,
  0x86, 0xde, 0xc1, 0xbe, 0x50, 0xf9, 0x0f, 0x3d, 0xfc, 0x7a, 0x22, 0x3e,
  0x30, 0x84, 0x82, 0x3d, 0xba, 0xa3, 0x8f, 0xbe, 0xe6, 0x90, 0x83, 0x3e,
  0x96, 0x2e, 0x0d, 0xbf, 0x4e, 0x0e, 0xac, 0xbe, 0x8e, 0x01, 0x1e, 0xbe,
  0x0c, 0x13, 0x6e, 0x3e, 0x6e, 0x82, 0xa0, 0x3e, 0xdd, 0x85, 0xd3, 0xbe,
  0x33, 0x0f, 0x63, 0x3c, 0x84, 0xb9, 0xe6, 0x3e, 0xc2, 0x25, 0x8f, 0xbe,
  0x84, 0x3a, 0x9e, 0xbe, 0xe7, 0xea, 0xd9, 0x3d, 0xc8, 0x6f, 0xdb, 0x3e,
  0x6e, 0x07, 0xc4, 0xbe, 0x60, 0x9e, 0x49, 0x3d, 0x69, 0x2b, 0xd3, 0xbe,
  0x5a, 0xb4, 0xb4, 0x3e, 0x4c, 0xfb, 0xb0, 0x3e, 0x1a, 0xe3, 0xaa, 0x3d,
  0x4e, 0x8e, 0x12, 0xbd, 0x4c, 0x02, 0x39, 0xbe, 0x9a, 0xaf, 0xeb, 0x3e,
  0xc0, 0xfa, 0x1f, 0x3d, 0x7a, 0xbf, 0x40, 0xbf, 0x54, 0x92, 0xee, 0x3e,
  0xa4, 0xaf, 0xb0, 0x3e, 0x80, 0xed, 0x16, 0xbc, 0x80, 0x4a, 0xc0, 0x3d,
  0x2a, 0x69, 0x47, 0xbe, 0xba, 0x35, 0x5c, 0xbb, 0xfe, 0xd5, 0x93, 0x3e,
  0xce, 0x37, 0x49, 0xbe, 0xcb, 0x1f, 0xfa, 0x3e, 0xe2, 0x12, 0x36, 0xbf,
  0xe0, 0x2f, 0xf0, 0x3d, 0x47, 0x37, 0x7f, 0xbe, 0x90, 0xdd, 0x0b, 0x3e,
  0xdc, 0xe8, 0xe7, 0xbd, 0xc0, 0x2c, 0x82, 0x3e, 0x50, 0x14, 0xe7, 0x3e,
  0x00, 0x60, 0x86, 0x3c, 0xe9, 0xa5, 0xa4, 0xbe, 0x3a, 0xfa, 0xff, 0xff,
  0x10, 0x00, 0x00, 0x00, 0x06, 0x00, 0x00, 0x00, 0x14, 0x00, 0x00, 0x00,
  0x60, 0x00, 0x00, 0x00, 0x02, 0x00, 0x00, 0x00, 0x06, 0x00, 0x00, 0x00,
  0x0c, 0x00, 0x00, 0x00, 0x4b, 0x00, 0x00, 0x00, 0x73, 0x65, 0x71, 0x75,
  0x65, 0x6e, 0x74, 0x69, 0x61, 0x6c, 0x2f, 0x64, 0x65, 0x6e, 0x73, 0x65,
  0x5f, 0x31, 0x2f, 0x4d, 0x61, 0x74, 0x4d, 0x75, 0x6c, 0x3b, 0x53, 0x74,
  0x61, 0x74, 0x65, 0x66, 0x75, 0x6c, 0x50, 0x61, 0x72, 0x74, 0x69, 0x74,
  0x69, 0x6f, 0x6e, 0x65, 0x64, 0x43, 0x61, 0x6c, 0x6c, 0x2f, 0x73, 0x65,
  0x71, 0x75, 0x65, 0x6e, 0x74, 0x69, 0x61, 0x6c, 0x2f, 0x64, 0x65, 0x6e,
  0x73, 0x65, 0x5f, 0x31, 0x2f, 0x4d, 0x61, 0x74, 0x4d, 0x75, 0x6c, 0x00,
  0x68, 0xfa, 0xff, 0xff, 0x26, 0xfb, 0xff, 0xff, 0x04, 0x00, 0x00, 0x00,
  0xc0, 0x03, 0x00, 0x00, 0xb6, 0xda, 0xc4, 0xbe, 0x6e, 0xae, 0xb7, 0x3d,
  0xf2, 0xb4, 0x35, 0x3e, 0x94, 0x63, 0x99, 0x3e, 0x28, 0xfd, 0x90, 0x3f,
  0xbe, 0x6f, 0x5a, 0x3e, 0x9d, 0x8c, 0x1a, 0xbd, 0x35, 0xb0, 0x8e, 0x3e,
  0x58, 0x52, 0x12, 0x3e, 0x7d, 0xc2, 0x8e, 0xbf, 0x0d, 0x79, 0xdc, 0xbe,
  0x39, 0x60, 0x3c, 0x3d, 0xdb, 0x0d, 0x7d, 0xbe, 0xc8, 0xcc, 0x8b, 0xbe,
  0xf9, 0x24, 0xc8, 0xbe, 0x51, 0xa4, 0xa9, 0x3d, 0x9a, 0x17, 0xd3, 0x3e,
  0x7e, 0xef, 0x24, 0x3e, 0xe9, 0x51, 0x0d, 0x3d, 0xa6, 0x2e, 0x50, 0x3f,
  0x82, 0x4d, 0xb8, 0x3d, 0x7f, 0x7d, 0x9a, 0x3d, 0x60, 0xd5, 0x55, 0xbe,
  0x79, 0x4d, 0x5f, 0x3d, 0x29, 0xa1, 0x50, 0x3f, 0xd9, 0x3f, 0x03, 0xbf,
  0xd2, 0xa9, 0x98, 0xbd, 0xe8, 0xaf, 0xb8, 0xbe, 0xa4, 0x49, 0xeb, 0x3c,
  0x33, 0x18, 0x03, 0xbe, 0x1c, 0x0a, 0x1d, 0x3e, 0x5e, 0x6b, 0xb0, 0x3d,
  0xfb, 0xce, 0x0a, 0x3d, 0x5f, 0xc0, 0x3d, 0x3e, 0x88, 0x13, 0x45, 0x3f,
  0x10, 0x85, 0x4e, 0x3e, 0xf6, 0xbf, 0x67, 0x3e, 0x50, 0xc8, 0x8d, 0xbe,
  0xb7, 0x9b, 0x2a, 0xbd, 0xb1, 0x18, 0x72, 0x3f, 0x9f, 0xc0, 0x75, 0xbc,
  0xc8, 0xbb, 0x87, 0xbe, 0xf3, 0xa1, 0xbf, 0x3e, 0xde, 0xb2, 0xd1, 0xbd,
  0xa8, 0x80, 0xd6, 0xbe, 0xea, 0xeb, 0x2b, 0x3e, 0xa9, 0xde, 0x5c, 0xbe,
  0xb8, 0xab, 0x35, 0xbe, 0x14, 0xd4, 0x7b, 0x3e, 0x51, 0xa8, 0x20, 0xbe,
  0xbe, 0xd0, 0xd6, 0xbe, 0x8a, 0x0f, 0x54, 0x3e, 0xa2, 0x10, 0xde, 0xbd,
  0xde, 0xa3, 0x9a, 0xbe, 0x5c, 0x6d, 0x43, 0x3d, 0x7a, 0x30, 0x00, 0x3d,
  0xa9, 0x0e, 0x2d, 0xbe, 0x40, 0xd8, 0xbb, 0xbe, 0xce, 0x0a, 0xc0, 0xbe,
  0x46, 0x70, 0xb4, 0x3e, 0xf7, 0xc6, 0xde, 0xbe, 0x35, 0xc7, 0x8f, 0xbe,
  0x45, 0xe4, 0xcc, 0x3e, 0x86, 0xc8, 0x36, 0x3e, 0xec, 0x91, 0xe6, 0x3d,
  0xf5, 0x4b, 0xe6, 0x3d, 0xf8, 0xa3, 0x6f, 0x3d, 0x59, 0x2c, 0xc5, 0xbe,
  0x34, 0x93, 0xc8, 0x3c, 0xc0, 0x54, 0x34, 0x3f, 0x2b, 0xd6, 0x98, 0xbe,
  0x83, 0xb3, 0x94, 0xbe, 0x51, 0x29, 0xbe, 0xbe, 0x87, 0x9a, 0xbb, 0xbe,
  0xf1, 0x79, 0x2d, 0x3f, 0x4e, 0xaa, 0xc9, 0x3e, 0x12, 0x8d, 0xba, 0x3e,
  0x90, 0x26, 0x9c, 0x3e, 0x64, 0x3d, 0x9b, 0xbd, 0xe1, 0x51, 0x26, 0x3f,
  0xc0, 0xe2, 0x80, 0x3b, 0x1b, 0x91, 0xa4, 0xbe, 0x9e, 0xdb, 0x31, 0x3e,
  0x39, 0xfb, 0x83, 0xbe, 0x9c, 0x2a, 0x96, 0x3d, 0x53, 0x6d, 0x89, 0x3e,
  0x3c, 0xcc, 0x94, 0x3d, 0x5f, 0x3a, 0x88, 0x3e, 0xf8, 0x44, 0x16, 0x3d,
  0xdc, 0xea, 0x0c, 0xbe, 0xa5, 0x98, 0xa7, 0xbe, 0xd8, 0xc7, 0x3f, 0xbd,
  0xb0, 0x60, 0xae, 0xbd, 0xfa, 0x4e, 0xaf, 0xbe, 0x70, 0x90, 0x7a, 0xbd,
  0x5a, 0x7c, 0x06, 0x3e, 0x66, 0xd2, 0x07, 0x3e, 0x44, 0xf4, 0xd8, 0xbe,
  0x4d, 0x2a, 0x5a, 0xbe, 0x47, 0x18, 0x57, 0xbe, 0x67, 0x02, 0x5d, 0x3e,
  0xac, 0x28, 0x45, 0xbe, 0x66, 0xed, 0xb1, 0x3d, 0x3d, 0xbd, 0xc0, 0x3b,
  0xac, 0x93, 0x95, 0x3e, 0x42, 0x5f, 0x06, 0xbf, 0xdc, 0x66, 0x56, 0xbf,
  0x5a, 0x19, 0x52, 0xbf, 0xb2, 0xbd, 0x53, 0xbd, 0x4c, 0x01, 0x9a, 0x3d,
  0x00, 0xa6, 0x6b, 0x3e, 0x67, 0x45, 0x2c, 0x3e, 0x8e, 0x4e, 0xe5, 0xbb,
  0xc6, 0x44, 0x60, 0xbe, 0x63, 0x0e, 0xd4, 0x3f, 0x63, 0x29, 0x77, 0xbe,
  0x44, 0x2d, 0x04, 0x3e, 0x28, 0x11, 0x14, 0x3e, 0xd0, 0xde, 0xaf, 0xbd,
  0x7e, 0xe2, 0xa7, 0x3f, 0x15, 0xe9, 0xa3, 0xbe, 0x37, 0xc1, 0x93, 0xbe,
  0xe6, 0xa8, 0xb5, 0xbe, 0x36, 0xa5, 0xac, 0xbe, 0x8f, 0xe1, 0xd9, 0x3e,
  0x54, 0xd6, 0x1e, 0xbe, 0x43, 0x74, 0xbf, 0x3e, 0x87, 0x57, 0xce, 0x3e,
  0x74, 0x32, 0xc5, 0x3d, 0x24, 0x30, 0x16, 0xbe, 0x3e, 0x7a, 0x00, 0x3e,
  0xa0, 0xf7, 0x1c, 0xbc, 0x60, 0x0e, 0x63, 0xbc, 0xa6, 0x45, 0x89, 0xbe,
  0xc8, 0x5c, 0x28, 0x3d, 0xbe, 0x58, 0x6b, 0x3e, 0x10, 0x80, 0xdb, 0xbd,
  0x08, 0x9e, 0x03, 0x3d, 0x84, 0xea, 0xd5, 0xbd, 0x78, 0x96, 0x96, 0xbd,
  0x40, 0xc7, 0x11, 0xbe, 0x0c, 0xb6, 0xfc, 0xbd, 0x3e, 0x1b, 0x6f, 0x3e,
  0xbc, 0x28, 0xae, 0xbe, 0xae, 0x85, 0x07, 0xbe, 0x48, 0xee, 0xcb, 0xbd,
  0xc2, 0x60, 0x4f, 0x3e, 0x78, 0xe5, 0x37, 0x3d, 0xf4, 0xb6, 0xff, 0x3d,
  0xcf, 0xb0, 0xbe, 0x3e, 0x88, 0x88, 0x7f, 0x3d, 0x00, 0x5e, 0xb2, 0x3b,
  0x57, 0x20, 0x99, 0x3e, 0xf0, 0xe9, 0x85, 0x3d, 0x58, 0xd1, 0x72, 0xbd,
  0x8a, 0xcd, 0xaa, 0xbe, 0x19, 0xab, 0xc6, 0x3e, 0x00, 0x02, 0xbe, 0xbd,
  0x0e, 0x6b, 0xbe, 0xbe, 0xe6, 0xc7, 0x49, 0x3e, 0x22, 0xbb, 0x06, 0x3e,
  0x5d, 0x0c, 0x98, 0xbe, 0xd5, 0x02, 0x95, 0x3e, 0x04, 0xd1, 0x83, 0xbe,
  0xd7, 0xc1, 0x82, 0x3e, 0x6d, 0xf0, 0xd1, 0xbe, 0x4c, 0xd1, 0x90, 0xbd,
  0x43, 0xea, 0xa8, 0x3e, 0xfb, 0x87, 0xc3, 0x3e, 0x00, 0xa9, 0x24, 0xbb,
  0x66, 0xad, 0x0c, 0xbe, 0xeb, 0xe3, 0x9f, 0xbe, 0x3d, 0xf5, 0x3e, 0xbe,
  0x0c, 0xb3, 0xa5, 0x3d, 0xd8, 0x4b, 0x54, 0xbd, 0xaf, 0xa2, 0xac, 0xbe,
  0x05, 0x1c, 0xc6, 0x3e, 0xa0, 0xfd, 0xf8, 0xbc, 0xc0, 0xbd, 0x71, 0x3c,
  0x8e, 0x94, 0xb1, 0xbe, 0x6e, 0x55, 0x83, 0xbd, 0x58, 0xc5, 0x46, 0x3d,
  0xa0, 0xec, 0x84, 0x3d, 0x8a, 0xca, 0xfd, 0xbd, 0xe4, 0x5d, 0x54, 0x3f,
  0x9d, 0x56, 0x49, 0x3e, 0x77, 0x92, 0xe2, 0x3d, 0xf9, 0x7e, 0xb4, 0x3c,
  0x32, 0x1f, 0x15, 0x3e, 0x8d, 0x86, 0xb8, 0xbf, 0x15, 0x8e, 0x64, 0xbd,
  0x6d, 0xe6, 0xa3, 0x3e, 0xd1, 0xfa, 0xdc, 0xbd, 0xc0, 0xc1, 0xfb, 0xbc,
  0xc9, 0xc6, 0x3d, 0x3e, 0x81, 0xb7, 0xbf, 0xbd, 0xc9, 0x50, 0x4b, 0x3e,
  0xea, 0xa6, 0xcf, 0x3e, 0x09, 0x0f, 0x90, 0xbe, 0x67, 0x7a, 0x92, 0x3f,
  0x14, 0xa5, 0xaf, 0xbe, 0x1e, 0x94, 0xd7, 0xbe, 0x39, 0x18, 0xda, 0xbe,
  0x68, 0xb2, 0x5c, 0xbd, 0x6f, 0x5b, 0xb0, 0x3e, 0xbe, 0x8a, 0xa4, 0xbe,
  0x00, 0xca, 0x23, 0xba, 0xd2, 0xcb, 0x4f, 0x3e, 0xaa, 0x58, 0x01, 0x3e,
  0x62, 0x42, 0x26, 0x3e, 0xae, 0x1d, 0x0d, 0x3e, 0xf8, 0xf6, 0xcf, 0xbd,
  0x5f, 0x8e, 0x87, 0x3e, 0x01, 0xc4, 0x4c, 0xbe, 0xb0, 0xa7, 0xed, 0xbd,
  0x77, 0xee, 0x93, 0x3e, 0x56, 0x1d, 0x13, 0xbe, 0x09, 0x0b, 0xb9, 0xbe,
  0xc3, 0xb2, 0xa5, 0xbe, 0x66, 0xb3, 0x93, 0xbe, 0x40, 0x4f, 0xae, 0x3e,
  0xc0, 0xec, 0xf9, 0xbd, 0x86, 0x32, 0xc6, 0x3e, 0x3b, 0xd4, 0x9b, 0xbe,
  0xde, 0xad, 0x99, 0xbf, 0x5a, 0xe5, 0xc1, 0xbe, 0x72, 0x74, 0x6f, 0xbe,
  0x94, 0x31, 0xc6, 0xbe, 0x88, 0x88, 0xbe, 0x3d, 0x71, 0x9e, 0x91, 0x3f,
  0xe7, 0xa5, 0x1e, 0x3d, 0xea, 0xa1, 0xd1, 0x3c, 0x36, 0x3a, 0x97, 0xbe,
  0x1f, 0x33, 0x8b, 0x3e, 0x46, 0xab, 0xf5, 0xbe, 0xc8, 0xfb, 0x8b, 0x3e,
  0x41, 0xfb, 0xc9, 0xbd, 0xa2, 0x74, 0xcc, 0xbe, 0x6d, 0x76, 0xb7, 0xbe,
  0xdd, 0x58, 0x80, 0xbf, 0x7a, 0xfe, 0xff, 0xff, 0x10, 0x00, 0x00, 0x00,
  0x05, 0x00, 0x00, 0x00, 0x14, 0x00, 0x00, 0x00, 0x5c, 0x00, 0x00, 0x00,
  0x02, 0x00, 0x00, 0x00, 0x0c, 0x00, 0x00, 0x00, 0x14, 0x00, 0x00, 0x00,
  0x47, 0x00, 0x00, 0x00, 0x73, 0x65, 0x71, 0x75, 0x65, 0x6e, 0x74, 0x69,
  0x61, 0x6c, 0x2f, 0x64, 0x65, 0x6e, 0x73, 0x65, 0x2f, 0x4d, 0x61, 0x74,
  0x4d, 0x75, 0x6c, 0x3b, 0x53, 0x74, 0x61, 0x74, 0x65, 0x66, 0x75, 0x6c,
  0x50, 0x61, 0x72, 0x74, 0x69, 0x74, 0x69, 0x6f, 0x6e, 0x65, 0x64, 0x43,
  0x61, 0x6c, 0x6c, 0x2f, 0x73, 0x65, 0x71, 0x75, 0x65, 0x6e, 0x74, 0x69,
  0x61, 0x6c, 0x2f, 0x64, 0x65, 0x6e, 0x73, 0x65, 0x2f, 0x4d, 0x61, 0x74,
  0x4d, 0x75, 0x6c, 0x00, 0xa4, 0xfe, 0xff, 0xff, 0x62, 0xff, 0xff, 0xff,
  0x04, 0x00, 0x00, 0x00, 0x0c, 0x00, 0x00, 0x00, 0x45, 0xae, 0x63, 0x40,
  0xad, 0xf4, 0x0f, 0xc0, 0x0b, 0xdd, 0x45, 0xc0, 0x02, 0xff, 0xff, 0xff,
  0x10, 0x00, 0x00, 0x00, 0x04, 0x00, 0x00, 0x00, 0x10, 0x00, 0x00, 0x00,
  0x1c, 0x00, 0x00, 0x00, 0x01, 0x00, 0x00, 0x00, 0x03, 0x00, 0x00, 0x00,
  0x09, 0x00, 0x00, 0x00, 0x75, 0x6e, 0x6b, 0x6e, 0x6f, 0x77, 0x6e, 0x5f,
  0x34, 0x00, 0x00, 0x00, 0xec, 0xfe, 0xff, 0xff, 0xaa, 0xff, 0xff, 0xff,
  0x04, 0x00, 0x00, 0x00, 0x18, 0x00, 0x00, 0x00, 0x52, 0x2a, 0x7b, 0xbc,
  0x00, 0x00, 0x00, 0x00, 0x00, 0x00, 0x00, 0x00, 0x95, 0x08, 0xf3, 0xbc,
  0x55, 0x97, 0x7a, 0xbf, 0x07, 0x7b, 0x80, 0xbf, 0x56, 0xff, 0xff, 0xff,
  0x10, 0x00, 0x00, 0x00, 0x03, 0x00, 0x00, 0x00, 0x10, 0x00, 0x00, 0x00,
  0x1c, 0x00, 0x00, 0x00, 0x01, 0x00, 0x00, 0x00, 0x06, 0x00, 0x00, 0x00,
  0x09, 0x00, 0x00, 0x00, 0x75, 0x6e, 0x6b, 0x6e, 0x6f, 0x77, 0x6e, 0x5f,
  0x32, 0x00, 0x00, 0x00, 0x8c, 0xff, 0xff, 0xff, 0x00, 0x00, 0x06, 0x00,
  0x08, 0x00, 0x04, 0x00, 0x06, 0x00, 0x00, 0x00, 0x04, 0x00, 0x00, 0x00,
  0x30, 0x00, 0x00, 0x00, 0xaf, 0x1d, 0x92, 0xbf, 0x19, 0x01, 0x2e, 0x3e,
  0xac, 0x2d, 0x45, 0xbc, 0x3c, 0xa3, 0x18, 0xbd, 0x00, 0x00, 0x00, 0x00,
  0x9e, 0xdc, 0x64, 0x3f, 0x00, 0x00, 0x00, 0x00, 0x00, 0x00, 0x00, 0x00,
  0x00, 0x00, 0x00, 0x00, 0x68, 0xf6, 0x68, 0xbf, 0x00, 0x00, 0x00, 0x00,
  0xe5, 0x0c, 0x3f, 0x3f, 0xca, 0xff, 0xff, 0xff, 0x10, 0x00, 0x00, 0x00,
  0x02, 0x00, 0x00, 0x00, 0x10, 0x00, 0x00, 0x00, 0x20, 0x00, 0x00, 0x00,
  0x01, 0x00, 0x00, 0x00, 0x0c, 0x00, 0x00, 0x00, 0x09, 0x00, 0x00, 0x00,
  0x75, 0x6e, 0x6b, 0x6e, 0x6f, 0x77, 0x6e, 0x5f, 0x30, 0x00, 0x00, 0x00,
  0x04, 0x00, 0x06, 0x00, 0x04, 0x00, 0x00, 0x00, 0x00, 0x00, 0x0e, 0x00,
  0x14, 0x00, 0x04, 0x00, 0x00, 0x00, 0x08, 0x00, 0x0c, 0x00, 0x10, 0x00,
  0x0e, 0x00, 0x00, 0x00, 0x10, 0x00, 0x00, 0x00, 0x01, 0x00, 0x00, 0x00,
  0x14, 0x00, 0x00, 0x00, 0x20, 0x00, 0x00, 0x00, 0x02, 0x00, 0x00, 0x00,
  0x01, 0x00, 0x00, 0x00, 0x14, 0x00, 0x00, 0x00, 0x0b, 0x00, 0x00, 0x00,
  0x64, 0x65, 0x6e, 0x73, 0x65, 0x5f, 0x69, 0x6e, 0x70, 0x75, 0x74, 0x00,
  0xfc, 0xff, 0xff, 0xff, 0x04, 0x00, 0x04, 0x00, 0x04, 0x00, 0x00, 0x00
};
unsigned int trained_tflite_len = 3492;
