const unsigned char trained_tflite[] = {
  0x1c, 0x00, 0x00, 0x00, 0x54, 0x46, 0x4c, 0x33, 0x00, 0x00, 0x12, 0x00,
  0x1c, 0x00, 0x04, 0x00, 0x08, 0x00, 0x0c, 0x00, 0x10, 0x00, 0x14, 0x00,
  0x00, 0x00, 0x18, 0x00, 0x12, 0x00, 0x00, 0x00, 0x03, 0x00, 0x00, 0x00,
  0x28, 0x10, 0x00, 0x00, 0x10, 0x00, 0x00, 0x00, 0x1c, 0x00, 0x00, 0x00,
  0x2c, 0x00, 0x00, 0x00, 0x0c, 0x00, 0x00, 0x00, 0x01, 0x00, 0x00, 0x00,
  0x20, 0x01, 0x00, 0x00, 0x01, 0x00, 0x00, 0x00, 0xe8, 0x00, 0x00, 0x00,
  0x0f, 0x00, 0x00, 0x00, 0x54, 0x4f, 0x43, 0x4f, 0x20, 0x43, 0x6f, 0x6e,
  0x76, 0x65, 0x72, 0x74, 0x65, 0x64, 0x2e, 0x00, 0x13, 0x00, 0x00, 0x00,
  0xbc, 0x00, 0x00, 0x00, 0xb0, 0x00, 0x00, 0x00, 0xa4, 0x00, 0x00, 0x00,
  0x9c, 0x00, 0x00, 0x00, 0x94, 0x00, 0x00, 0x00, 0x8c, 0x00, 0x00, 0x00,
  0x80, 0x00, 0x00, 0x00, 0x74, 0x00, 0x00, 0x00, 0x68, 0x00, 0x00, 0x00,
  0x60, 0x00, 0x00, 0x00, 0x54, 0x00, 0x00, 0x00, 0x48, 0x00, 0x00, 0x00,
  0x40, 0x00, 0x00, 0x00, 0x38, 0x00, 0x00, 0x00, 0x2c, 0x00, 0x00, 0x00,
  0x24, 0x00, 0x00, 0x00, 0x1c, 0x00, 0x00, 0x00, 0x10, 0x00, 0x00, 0x00,
  0x04, 0x00, 0x00, 0x00, 0x7e, 0xf0, 0xff, 0xff, 0x70, 0x00, 0x00, 0x00,
  0x86, 0xf0, 0xff, 0xff, 0x5c, 0x01, 0x00, 0x00, 0x04, 0xf2, 0xff, 0xff,
  0x08, 0xf2, 0xff, 0xff, 0x96, 0xf0, 0xff, 0xff, 0x40, 0x02, 0x00, 0x00,
  0x14, 0xf2, 0xff, 0xff, 0x18, 0xf2, 0xff, 0xff, 0xa6, 0xf0, 0xff, 0xff,
  0x38, 0x03, 0x00, 0x00, 0xae, 0xf0, 0xff, 0xff, 0x80, 0x04, 0x00, 0x00,
  0x2c, 0xf2, 0xff, 0xff, 0xba, 0xf0, 0xff, 0xff, 0x2c, 0x05, 0x00, 0x00,
  0xc2, 0xf0, 0xff, 0xff, 0x90, 0x05, 0x00, 0x00, 0xca, 0xf0, 0xff, 0xff,
  0xd8, 0x07, 0x00, 0x00, 0x48, 0xf2, 0xff, 0xff, 0x4c, 0xf2, 0xff, 0xff,
  0x50, 0xf2, 0xff, 0xff, 0xde, 0xf0, 0xff, 0xff, 0x0c, 0x09, 0x00, 0x00,
  0xe6, 0xf0, 0xff, 0xff, 0x90, 0x09, 0x00, 0x00, 0x64, 0xf2, 0xff, 0xff,
  0x05, 0x00, 0x00, 0x00, 0x31, 0x2e, 0x35, 0x2e, 0x30, 0x00, 0x00, 0x00,
  0x98, 0xfe, 0xff, 0xff, 0x08, 0x00, 0x00, 0x00, 0x12, 0x00, 0x00, 0x00,
  0x13, 0x00, 0x00, 0x00, 0x6d, 0x69, 0x6e, 0x5f, 0x72, 0x75, 0x6e, 0x74,
  0x69, 0x6d, 0x65, 0x5f, 0x76, 0x65, 0x72, 0x73, 0x69, 0x6f, 0x6e, 0x00,
  0x0c, 0x00, 0x14, 0x00, 0x04, 0x00, 0x08, 0x00, 0x0c, 0x00, 0x10, 0x00,
  0x0c, 0x00, 0x00, 0x00, 0x20, 0x00, 0x00, 0x00, 0x14, 0x00, 0x00, 0x00,
  0x08, 0x00, 0x00, 0x00, 0xc0, 0x0c, 0x00, 0x00, 0x01, 0x00, 0x00, 0x00,
  0x00, 0x00, 0x00, 0x00, 0x01, 0x00, 0x00, 0x00, 0x10, 0x00, 0x00, 0x00,
  0x11, 0x00, 0x00, 0x00, 0x20, 0x08, 0x00, 0x00, 0xa4, 0x01, 0x00, 0x00,
  0xe4, 0x03, 0x00, 0x00, 0xf8, 0x06, 0x00, 0x00, 0x24, 0x02, 0x00, 0x00,
  0x7c, 0x03, 0x00, 0x00, 0xc4, 0x07, 0x00, 0x00, 0x78, 0x07, 0x00, 0x00,
  0x14, 0x01, 0x00, 0x00, 0x80, 0x04, 0x00, 0x00, 0x1c, 0x04, 0x00, 0x00,
  0xc0, 0x01, 0x00, 0x00, 0x14, 0x00, 0x00, 0x00, 0x6c, 0x00, 0x00, 0x00,
  0x90, 0x08, 0x00, 0x00, 0x18, 0x08, 0x00, 0x00, 0xa4, 0x00, 0x00, 0x00,
  0x0e, 0xfc, 0xff, 0xff, 0x00, 0x00, 0x00, 0x02, 0x10, 0x00, 0x00, 0x00,
  0x11, 0x00, 0x00, 0x00, 0x10, 0x00, 0x00, 0x00, 0x34, 0x00, 0x00, 0x00,
  0x01, 0x00, 0x00, 0x00, 0x03, 0x00, 0x00, 0x00, 0x20, 0x00, 0x00, 0x00,
  0x73, 0x65, 0x71, 0x75, 0x65, 0x6e, 0x74, 0x69, 0x61, 0x6c, 0x2f, 0x72,
  0x65, 0x73, 0x68, 0x61, 0x70, 0x65, 0x2f, 0x52, 0x65, 0x73, 0x68, 0x61,
  0x70, 0x65, 0x2f, 0x73, 0x68, 0x61, 0x70, 0x65, 0x00, 0x00, 0x00, 0x00,
  0x58, 0xf3, 0xff, 0xff, 0x0c, 0x00, 0x00, 0x00, 0x01, 0x00, 0x00, 0x00,
  0x04, 0x00, 0x00, 0x00, 0x04, 0x00, 0x00, 0x00, 0xe6, 0xf7, 0xff, 0xff,
  0x10, 0x00, 0x00, 0x00, 0x10, 0x00, 0x00, 0x00, 0x14, 0x00, 0x00, 0x00,
  0x30, 0x00, 0x00, 0x00, 0x02, 0x00, 0x00, 0x00, 0x01, 0x00, 0x00, 0x00,
  0x07, 0x00, 0x00, 0x00, 0x19, 0x00, 0x00, 0x00, 0x73, 0x65, 0x71, 0x75,
  0x65, 0x6e, 0x74, 0x69, 0x61, 0x6c, 0x2f, 0x79, 0x5f, 0x70, 0x72, 0x65,
  0x64, 0x2f, 0x42, 0x69, 0x61, 0x73, 0x41, 0x64, 0x64, 0x00, 0x00, 0x00,
  0xac, 0xf3, 0xff, 0xff, 0x2a, 0xf8, 0xff, 0xff, 0x10, 0x00, 0x00, 0x00,
  0x0f, 0x00, 0x00, 0x00, 0x14, 0x00, 0x00, 0x00, 0x24, 0x00, 0x00, 0x00,
  0x02, 0x00, 0x00, 0x00, 0x01, 0x00, 0x00, 0x00, 0x10, 0x00, 0x00, 0x00,
  0x07, 0x00, 0x00, 0x00, 0x78, 0x5f, 0x69, 0x6e, 0x70, 0x75, 0x74, 0x00,
  0x08, 0x00, 0x0c, 0x00, 0x04, 0x00, 0x08, 0x00, 0x08, 0x00, 0x00, 0x00,
  0x10, 0x00, 0x00, 0x00, 0x04, 0x00, 0x00, 0x00, 0x01, 0x00, 0x00, 0x00,
  0x00, 0x00, 0x7f, 0x43, 0x01, 0x00, 0x00, 0x00, 0x00, 0x00, 0x00, 0x00,
  0x7a, 0xf8, 0xff, 0xff, 0x10, 0x00, 0x00, 0x00, 0x0e, 0x00, 0x00, 0x00,
  0x10, 0x00, 0x00, 0x00, 0x3c, 0x00, 0x00, 0x00, 0x01, 0x00, 0x00, 0x00,
  0x08, 0x00, 0x00, 0x00, 0x28, 0x00, 0x00, 0x00, 0x73, 0x65, 0x71, 0x75,
  0x65, 0x6e, 0x74, 0x69, 0x61, 0x6c, 0x2f, 0x64, 0x65, 0x6e, 0x73, 0x65,
  0x5f, 0x31, 0x2f, 0x54, 0x65, 0x6e, 0x73, 0x6f, 0x72, 0x64, 0x6f, 0x74,
  0x2f, 0x4d, 0x61, 0x74, 0x4d, 0x75, 0x6c, 0x5f, 0x62, 0x69, 0x61, 0x73,
  0x00, 0x00, 0x00, 0x00, 0x4c, 0xf4, 0xff, 0xff, 0x20, 0x00, 0x00, 0x00,
  0x00, 0x00, 0x00, 0x00, 0x00, 0x28, 0xf4, 0x3d, 0x00, 0x00, 0x00, 0x00,
  0x00, 0x00, 0x00, 0x00, 0xd0, 0x96, 0x9a, 0xbd, 0x00, 0x00, 0x00, 0x00,
  0xb8, 0x6c, 0x23, 0xbf, 0xeb, 0x0a, 0xd9, 0xbe, 0xee, 0xf8, 0xff, 0xff,
  0x10, 0x00, 0x00, 0x00, 0x0d, 0x00, 0x00, 0x00, 0x18, 0x00, 0x00, 0x00,
  0x30, 0x00, 0x00, 0x00, 0x03, 0x00, 0x00, 0x00, 0x01, 0x00, 0x00, 0x00,
  0x04, 0x00, 0x00, 0x00, 0x10, 0x00, 0x00, 0x00, 0x15, 0x00, 0x00, 0x00,
  0x73, 0x65, 0x71, 0x75, 0x65, 0x6e, 0x74, 0x69, 0x61, 0x6c, 0x2f, 0x64,
  0x65, 0x6e, 0x73, 0x65, 0x2f, 0x52, 0x65, 0x6c, 0x75, 0x00, 0x00, 0x00,
  0xb4, 0xf4, 0xff, 0xff, 0x32, 0xf9, 0xff, 0xff, 0x10, 0x00, 0x00, 0x00,
  0x0c, 0x00, 0x00, 0x00, 0x18, 0x00, 0x00, 0x00, 0x34, 0x00, 0x00, 0x00,
  0x03, 0x00, 0x00, 0x00, 0x01, 0x00, 0x00, 0x00, 0x04, 0x00, 0x00, 0x00,
  0x04, 0x00, 0x00, 0x00, 0x1a, 0x00, 0x00, 0x00, 0x73, 0x65, 0x71, 0x75,
  0x65, 0x6e, 0x74, 0x69, 0x61, 0x6c, 0x2f, 0x72, 0x65, 0x73, 0x68, 0x61,
  0x70, 0x65, 0x2f, 0x52, 0x65, 0x73, 0x68, 0x61, 0x70, 0x65, 0x00, 0x00,
  0xfc, 0xf4, 0xff, 0xff, 0x7a, 0xf9, 0xff, 0xff, 0x10, 0x00, 0x00, 0x00,
  0x0b, 0x00, 0x00, 0x00, 0x14, 0x00, 0x00, 0x00, 0x44, 0x00, 0x00, 0x00,
  0x02, 0x00, 0x00, 0x00, 0x10, 0x00, 0x00, 0x00, 0x04, 0x00, 0x00, 0x00,
  0x2e, 0x00, 0x00, 0x00, 0x73, 0x65, 0x71, 0x75, 0x65, 0x6e, 0x74, 0x69,
  0x61, 0x6c, 0x2f, 0x64, 0x65, 0x6e, 0x73, 0x65, 0x2f, 0x54, 0x65, 0x6e,
  0x73, 0x6f, 0x72, 0x64, 0x6f, 0x74, 0x2f, 0x52, 0x65, 0x73, 0x68, 0x61,
  0x70, 0x65, 0x5f, 0x31, 0x2f, 0x74, 0x72, 0x61, 0x6e, 0x73, 0x70, 0x6f,
  0x73, 0x65, 0x00, 0x00, 0x54, 0xf5, 0xff, 0xff, 0x00, 0x01, 0x00, 0x00,
  0x29, 0x0f, 0xb5, 0xbe, 0xac, 0x90, 0xbf, 0xbe, 0x34, 0xfd, 0xcb, 0x3e,
  0xe7, 0xfe, 0x7c, 0x3e, 0x27, 0x47, 0xd9, 0x3d, 0xe4, 0xdb, 0x83, 0xbe,
  0x08, 0xab, 0x3f, 0x3e, 0x2a, 0x05, 0xa7, 0x3d, 0x00, 0xad, 0x83, 0xbb,
  0x89, 0xe5, 0xba, 0xbe, 0x67, 0xef, 0x09, 0xbf, 0x73, 0xd4, 0x03, 0xbf,
  0x0d, 0x12, 0x0f, 0xbf, 0x8a, 0xcf, 0x3c, 0xbe, 0x2f, 0xd6, 0xf9, 0x3e,
  0x53, 0x15, 0x5e, 0xbd, 0xcb, 0x66, 0x0f, 0xbd, 0xa3, 0x48, 0xe8, 0xbe,
  0xba, 0x3c, 0xe6, 0x3e, 0x63, 0x00, 0x58, 0x3d, 0x50, 0xd8, 0x52, 0x3e,
  0x12, 0x2f, 0x74, 0x3d, 0xbd, 0x14, 0x2b, 0xbd, 0x0f, 0x36, 0x65, 0xbe,
  0x0a, 0x55, 0xcf, 0xbe, 0x08, 0x58, 0x08, 0xbf, 0x88, 0x9f, 0xea, 0xbd,
  0xd4, 0xcc, 0x09, 0x3f, 0x8a, 0x65, 0x38, 0xbe, 0x16, 0x8e, 0x15, 0xbe,
  0x5c, 0xd7, 0x7c, 0x3e, 0x6c, 0x6c, 0x2b, 0xbe, 0x76, 0x1e, 0x3f, 0x3d,
  0xb2, 0xdf, 0x43, 0x3e, 0x13, 0x86, 0xe5, 0xbe, 0xe6, 0x27, 0x50, 0x3e,
  0x80, 0x0a, 0xd6, 0xbc, 0x30, 0xf7, 0x9c, 0xbe, 0x80, 0xa0, 0xe1, 0x3b,
  0x96, 0x86, 0x03, 0xbf, 0xc9, 0xcb, 0xd1, 0xbe, 0x77, 0xde, 0xf2, 0x3e,
  0xb5, 0x62, 0xc5, 0xbe, 0x7d, 0x6e, 0xeb, 0x3e, 0xc5, 0x45, 0x89, 0x3e,
  0x07, 0x04, 0xba, 0x3e, 0x37, 0xaa, 0x20, 0xbf, 0x67, 0x43, 0x44, 0x3e,
  0xd0, 0x93, 0x39, 0x3e, 0xed, 0xe9, 0x42, 0x3e, 0xd9, 0xc6, 0xb5, 0xbe,
  0x5c, 0x84, 0x2e, 0x3d, 0x70, 0x46, 0x72, 0x3d, 0x10, 0xea, 0xd5, 0x3d,
  0x38, 0x5e, 0xd0, 0xbd, 0xe6, 0xd3, 0x52, 0xbe, 0x8e, 0x08, 0xa4, 0xbe,
  0x91, 0xc8, 0xe5, 0xbe, 0xbc, 0x94, 0x8b, 0xbd, 0xe8, 0x0a, 0x69, 0x3e,
  0x9a, 0xbf, 0xaa, 0xbe, 0x64, 0x39, 0x97, 0x3e, 0x32, 0x16, 0xbb, 0xbe,
  0xd8, 0xe1, 0x66, 0x3e, 0x5a, 0xff, 0xff, 0xff, 0x00, 0x00, 0x00, 0x02,
  0x10, 0x00, 0x00, 0x00, 0x0a, 0x00, 0x00, 0x00, 0x10, 0x00, 0x00, 0x00,
  0x34, 0x00, 0x00, 0x00, 0x01, 0x00, 0x00, 0x00, 0x03, 0x00, 0x00, 0x00,
  0x23, 0x00, 0x00, 0x00, 0x73, 0x65, 0x71, 0x75, 0x65, 0x6e, 0x74, 0x69,
  0x61, 0x6c, 0x2f, 0x64, 0x65, 0x6e, 0x73, 0x65, 0x2f, 0x54, 0x65, 0x6e,
  0x73, 0x6f, 0x72, 0x64, 0x6f, 0x74, 0x2f, 0x63, 0x6f, 0x6e, 0x63, 0x61,
  0x74, 0x5f, 0x31, 0x00, 0xa4, 0xf6, 0xff, 0xff, 0x0c, 0x00, 0x00, 0x00,
  0x01, 0x00, 0x00, 0x00, 0x04, 0x00, 0x00, 0x00, 0x10, 0x00, 0x00, 0x00,
  0x32, 0xfb, 0xff, 0xff, 0x10, 0x00, 0x00, 0x00, 0x09, 0x00, 0x00, 0x00,
  0x14, 0x00, 0x00, 0x00, 0x34, 0x00, 0x00, 0x00, 0x02, 0x00, 0x00, 0x00,
  0x04, 0x00, 0x00, 0x00, 0x10, 0x00, 0x00, 0x00, 0x1a, 0x00, 0x00, 0x00,
  0x73, 0x65, 0x71, 0x75, 0x65, 0x6e, 0x74, 0x69, 0x61, 0x6c, 0x2f, 0x64,
  0x65, 0x6e, 0x73, 0x65, 0x2f, 0x54, 0x65, 0x6e, 0x73, 0x6f, 0x72, 0x64,
  0x6f, 0x74, 0x00, 0x00, 0x04, 0x00, 0x06, 0x00, 0x04, 0x00, 0x00, 0x00,
  0x00, 0x00, 0x0e, 0x00, 0x18, 0x00, 0x08, 0x00, 0x07, 0x00, 0x0c, 0x00,
  0x10, 0x00, 0x14, 0x00, 0x0e, 0x00, 0x00, 0x00, 0x00, 0x00, 0x00, 0x02,
  0x10, 0x00, 0x00, 0x00, 0x08, 0x00, 0x00, 0x00, 0x10, 0x00, 0x00, 0x00,
  0x38, 0x00, 0x00, 0x00, 0x01, 0x00, 0x00, 0x00, 0x03, 0x00, 0x00, 0x00,
  0x25, 0x00, 0x00, 0x00, 0x73, 0x65, 0x71, 0x75, 0x65, 0x6e, 0x74, 0x69,
  0x61, 0x6c, 0x2f, 0x64, 0x65, 0x6e, 0x73, 0x65, 0x5f, 0x31, 0x2f, 0x54,
  0x65, 0x6e, 0x73, 0x6f, 0x72, 0x64, 0x6f, 0x74, 0x2f, 0x63, 0x6f, 0x6e,
  0x63, 0x61, 0x74, 0x5f, 0x31, 0x00, 0x00, 0x00, 0x5c, 0xf7, 0xff, 0xff,
  0x0c, 0x00, 0x00, 0x00, 0x01, 0x00, 0x00, 0x00, 0x04, 0x00, 0x00, 0x00,
  0x08, 0x00, 0x00, 0x00, 0xea, 0xfb, 0xff, 0xff, 0x10, 0x00, 0x00, 0x00,
  0x07, 0x00, 0x00, 0x00, 0x14, 0x00, 0x00, 0x00, 0x48, 0x00, 0x00, 0x00,
  0x02, 0x00, 0x00, 0x00, 0x08, 0x00, 0x00, 0x00, 0x10, 0x00, 0x00, 0x00,
  0x30, 0x00, 0x00, 0x00, 0x73, 0x65, 0x71, 0x75, 0x65, 0x6e, 0x74, 0x69,
  0x61, 0x6c, 0x2f, 0x64, 0x65, 0x6e, 0x73, 0x65, 0x5f, 0x31, 0x2f, 0x54,
  0x65, 0x6e, 0x73, 0x6f, 0x72, 0x64, 0x6f, 0x74, 0x2f, 0x52, 0x65, 0x73,
  0x68, 0x61, 0x70, 0x65, 0x5f, 0x31, 0x2f, 0x74, 0x72, 0x61, 0x6e, 0x73,
  0x70, 0x6f, 0x73, 0x65, 0x00, 0x00, 0x00, 0x00, 0xc8, 0xf7, 0xff, 0xff,
  0x00, 0x02, 0x00, 0x00, 0x14, 0x61, 0x9c, 0xbe, 0x4c, 0xe5, 0xa7, 0xbe,
  0xa8, 0x1d, 0x18, 0xbe, 0x2c, 0xae, 0x84, 0xbe, 0x80, 0xca, 0x78, 0xbe,
  0xec, 0x9b, 0xce, 0x3e, 0x4c, 0xd4, 0xe4, 0x3e, 0x58, 0xd6, 0x08, 0xbe,
  0xe0, 0xb1, 0x2c, 0xbe, 0x38, 0x41, 0x59, 0xbe, 0xc4, 0xaf, 0xcf, 0xbe,
  0x80, 0xdf, 0xd3, 0xbd, 0x04, 0x68, 0xd2, 0x3e, 0x00, 0xa5, 0xc4, 0x3c,
  0x40, 0xd6, 0x5e, 0xbe, 0x40, 0xa4, 0xdd, 0x3e, 0x14, 0x67, 0x92, 0xbe,
  0x35, 0xe8, 0xe0, 0xbe, 0x48, 0xac, 0xdc, 0x3e, 0x98, 0x2b, 0xbf, 0xbe,
  0x0a, 0x13, 0x08, 0xbf, 0x9f, 0x3a, 0x13, 0x3d, 0x18, 0xbd, 0xb3, 0xbe,
  0x60, 0x8f, 0x9f, 0xbd, 0x79, 0x88, 0xa6, 0xbb, 0x14, 0xd0, 0xb9, 0x3e,
  0x07, 0x77, 0x6b, 0xbe, 0x59, 0xf3, 0xac, 0x3e, 0x64, 0x3c, 0x6c, 0x3e,
  0x00, 0xfd, 0xfc, 0xbe, 0x18, 0xee, 0x3e, 0x3e, 0x20, 0x40, 0xe8, 0xbd,
  0x84, 0x81, 0xc0, 0xbe, 0xc0, 0x60, 0x80, 0xbc, 0xb0, 0x84, 0x9f, 0x3e,
  0xa0, 0x0f, 0x62, 0x3d, 0x24, 0x80, 0xba, 0xbe, 0x1c, 0x10, 0x9d, 0x3e,
  0x38, 0x01, 0x95, 0xbe, 0x80, 0x39, 0x7a, 0xbc, 0xa0, 0x01, 0x73, 0x3d,
  0x80, 0x81, 0xeb, 0xbc, 0x6c, 0xce, 0xc2, 0x3e, 0x1c, 0x6c, 0xe1, 0xbe,
  0x20, 0x2b, 0xb1, 0xbe, 0x68, 0x4f, 0x6e, 0xbe, 0x8c, 0x88, 0xf0, 0xbe,
  0xc0, 0x92, 0x1c, 0x3e, 0x4c, 0x44, 0xa2, 0xbe, 0xb0, 0x5f, 0x8f, 0x3d,
  0xf0, 0xb4, 0x1d, 0x3e, 0xac, 0x07, 0x89, 0xbe, 0x00, 0x63, 0x2c, 0x3d,
  0x10, 0xf2, 0x8c, 0xbd, 0x60, 0x9b, 0x2e, 0x3d, 0xac, 0xe5, 0x91, 0x3e,
  0xb8, 0x47, 0x11, 0xbe, 0x60, 0x78, 0xdd, 0xbd, 0xc0, 0xfa, 0xd7, 0x3e,
  0x04, 0x2d, 0xb2, 0xbe, 0x80, 0x8c, 0x2b, 0xbe, 0xd0, 0x95, 0x9d, 0x3e,
  0xc4, 0x6c, 0xe9, 0x3e, 0x00, 0x8b, 0x0f, 0x3c, 0xd2, 0x80, 0xc8, 0xbe,
  0x58, 0xea, 0x5b, 0x3d, 0x50, 0xb6, 0x0c, 0x3e, 0xfd, 0xc5, 0x65, 0x3d,
  0x4c, 0x42, 0x69, 0x3e, 0x65, 0xad, 0x0c, 0xbf, 0x00, 0xb5, 0x02, 0xbc,
  0xe0, 0xaf, 0x04, 0xbe, 0x0c, 0x68, 0x46, 0x3e, 0x88, 0x91, 0x64, 0x3e,
  0x8a, 0xa8, 0xdc, 0xbe, 0xe5, 0x48, 0x71, 0x3e, 0x67, 0x8b, 0x90, 0xbe,
  0xb0, 0x2a, 0x4b, 0x3e, 0x68, 0x10, 0x91, 0x3e, 0x14, 0x41, 0xd4, 0xbe,
  0x6c, 0xce, 0x94, 0x3e, 0xc0, 0x4c, 0xb4, 0xbd, 0x50, 0xf0, 0x77, 0xbe,
  0x10, 0x02, 0xd0, 0x3d, 0x04, 0x81, 0xea, 0xbe, 0x20, 0xc4, 0xa9, 0xbe,
  0x28, 0x78, 0x61, 0x3e, 0xd8, 0xbf, 0xab, 0x3e, 0x78, 0x52, 0xad, 0x3e,
  0xf0, 0x0c, 0xc7, 0xbe, 0x50, 0x48, 0xe8, 0x3e, 0xe8, 0x4f, 0xb5, 0xbe,
  0xb0, 0x32, 0x9d, 0x3d, 0x10, 0x50, 0xc1, 0xbd, 0xdc, 0xc4, 0xe1, 0x3e,
  0xf4, 0x15, 0xbd, 0xbe, 0x57, 0x40, 0x4b, 0xbf, 0x9f, 0xcc, 0x2e, 0x3f,
  0xe0, 0xb5, 0xed, 0x3d, 0x12, 0xc2, 0x89, 0x3d, 0xde, 0x20, 0xd0, 0x3e,
  0x70, 0x6e, 0x76, 0x3e, 0x04, 0x7e, 0xd3, 0x3e, 0xb0, 0x2d, 0x4e, 0x3e,
  0xf9, 0x37, 0x5f, 0x3d, 0x90, 0x18, 0xec, 0xbe, 0x87, 0xc4, 0x99, 0x3e,
  0x3d, 0xcc, 0x1d, 0x3f, 0x52, 0x20, 0x03, 0xbe, 0x30, 0xcd, 0x88, 0xbe,
  0xd8, 0xee, 0xb4, 0x3e, 0x98, 0x6c, 0xf6, 0xbe, 0xb4, 0xc6, 0x33, 0xbf,
  0xd2, 0xec, 0x26, 0x3f, 0x78, 0x4c, 0x95, 0xbe, 0x14, 0xd3, 0x37, 0x3e,
  0x24, 0x1d, 0x07, 0x3f, 0x36, 0xb9, 0x48, 0xbd, 0x30, 0x15, 0xc0, 0xbd,
  0xa4, 0x7e, 0x9c, 0x3e, 0x76, 0xdf, 0x38, 0xbe, 0x10, 0xbc, 0x87, 0xbe,
  0xb0, 0x5e, 0xfa, 0x3e, 0xee, 0x8f, 0xa3, 0xbe, 0x0a, 0x08, 0xe4, 0x3e,
  0xa8, 0x45, 0xbe, 0xbe, 0xa8, 0x74, 0x13, 0x3e, 0x20, 0xd3, 0xae, 0xbd,
  0x4a, 0xfe, 0xff, 0xff, 0x10, 0x00, 0x00, 0x00, 0x06, 0x00, 0x00, 0x00,
  0x10, 0x00, 0x00, 0x00, 0x38, 0x00, 0x00, 0x00, 0x01, 0x00, 0x00, 0x00,
  0x10, 0x00, 0x00, 0x00, 0x26, 0x00, 0x00, 0x00, 0x73, 0x65, 0x71, 0x75,
  0x65, 0x6e, 0x74, 0x69, 0x61, 0x6c, 0x2f, 0x64, 0x65, 0x6e, 0x73, 0x65,
  0x2f, 0x54, 0x65, 0x6e, 0x73, 0x6f, 0x72, 0x64, 0x6f, 0x74, 0x2f, 0x4d,
  0x61, 0x74, 0x4d, 0x75, 0x6c, 0x5f, 0x62, 0x69, 0x61, 0x73, 0x00, 0x00,
  0x18, 0xfa, 0xff, 0xff, 0x40, 0x00, 0x00, 0x00, 0x1b, 0x8d, 0x96, 0xbb,
  0x38, 0x9c, 0x77, 0xbf, 0x00, 0x00, 0x00, 0x00, 0xef, 0x19, 0xd6, 0xbc,
  0xb3, 0xf9, 0x2d, 0xbf, 0xd0, 0x34, 0x43, 0xbe, 0x00, 0x00, 0x00, 0x00,
  0x00, 0x00, 0x00, 0x00, 0x81, 0xf7, 0xff, 0xbc, 0x00, 0x00, 0x00, 0x00,
  0x19, 0xd9, 0x6c, 0xbf, 0x1e, 0x20, 0x1e, 0xbe, 0xcf, 0x20, 0x11, 0xbe,
  0x00, 0x00, 0x00, 0x00, 0x00, 0x00, 0x00, 0x00, 0x00, 0x00, 0x00, 0x00,
  0xda, 0xfe, 0xff, 0xff, 0x10, 0x00, 0x00, 0x00, 0x05, 0x00, 0x00, 0x00,
  0x14, 0x00, 0x00, 0x00, 0x34, 0x00, 0x00, 0x00, 0x02, 0x00, 0x00, 0x00,
  0x04, 0x00, 0x00, 0x00, 0x08, 0x00, 0x00, 0x00, 0x1c, 0x00, 0x00, 0x00,
  0x73, 0x65, 0x71, 0x75, 0x65, 0x6e, 0x74, 0x69, 0x61, 0x6c, 0x2f, 0x64,
  0x65, 0x6e, 0x73, 0x65, 0x5f, 0x31, 0x2f, 0x54, 0x65, 0x6e, 0x73, 0x6f,
  0x72, 0x64, 0x6f, 0x74, 0x00, 0x00, 0x00, 0x00, 0xa4, 0xfa, 0xff, 0xff,
  0x22, 0xff, 0xff, 0xff, 0x10, 0x00, 0x00, 0x00, 0x04, 0x00, 0x00, 0x00,
  0x18, 0x00, 0x00, 0x00, 0x30, 0x00, 0x00, 0x00, 0x03, 0x00, 0x00, 0x00,
  0x01, 0x00, 0x00, 0x00, 0x04, 0x00, 0x00, 0x00, 0x08, 0x00, 0x00, 0x00,
  0x17, 0x00, 0x00, 0x00, 0x73, 0x65, 0x71, 0x75, 0x65, 0x6e, 0x74, 0x69,
  0x61, 0x6c, 0x2f, 0x64, 0x65, 0x6e, 0x73, 0x65, 0x5f, 0x31, 0x2f, 0x52,
  0x65, 0x6c, 0x75, 0x00, 0xe8, 0xfa, 0xff, 0xff, 0x66, 0xff, 0xff, 0xff,
  0x10, 0x00, 0x00, 0x00, 0x03, 0x00, 0x00, 0x00, 0x14, 0x00, 0x00, 0x00,
  0x20, 0x00, 0x00, 0x00, 0x02, 0x00, 0x00, 0x00, 0x01, 0x00, 0x00, 0x00,
  0x07, 0x00, 0x00, 0x00, 0x08, 0x00, 0x00, 0x00, 0x49, 0x64, 0x65, 0x6e,
  0x74, 0x69, 0x74, 0x79, 0x00, 0x00, 0x00, 0x00, 0x1c, 0xfb, 0xff, 0xff,
  0x9a, 0xff, 0xff, 0xff, 0x10, 0x00, 0x00, 0x00, 0x02, 0x00, 0x00, 0x00,
  0x10, 0x00, 0x00, 0x00, 0x30, 0x00, 0x00, 0x00, 0x01, 0x00, 0x00, 0x00,
  0x07, 0x00, 0x00, 0x00, 0x1d, 0x00, 0x00, 0x00, 0x73, 0x65, 0x71, 0x75,
  0x65, 0x6e, 0x74, 0x69, 0x61, 0x6c, 0x2f, 0x79, 0x5f, 0x70, 0x72, 0x65,
  0x64, 0x2f, 0x4d, 0x61, 0x74, 0x4d, 0x75, 0x6c, 0x5f, 0x62, 0x69, 0x61,
  0x73, 0x00, 0x00, 0x00, 0x60, 0xfb, 0xff, 0xff, 0x1c, 0x00, 0x00, 0x00,
  0x4c, 0x4b, 0x88, 0x3d, 0x3b, 0x66, 0x41, 0x3e, 0x68, 0xac, 0x8f, 0xbb,
  0x31, 0x00, 0xd1, 0x3e, 0xc4, 0x95, 0xcf, 0xbd, 0x83, 0x73, 0xe9, 0x3d,
  0x6e, 0xa7, 0x57, 0xbd, 0x00, 0x00, 0x0e, 0x00, 0x14, 0x00, 0x04, 0x00,
  0x00, 0x00, 0x08, 0x00, 0x0c, 0x00, 0x10, 0x00, 0x0e, 0x00, 0x00, 0x00,
  0x10, 0x00, 0x00, 0x00, 0x01, 0x00, 0x00, 0x00, 0x14, 0x00, 0x00, 0x00,
  0x48, 0x00, 0x00, 0x00, 0x02, 0x00, 0x00, 0x00, 0x07, 0x00, 0x00, 0x00,
  0x20, 0x00, 0x00, 0x00, 0x31, 0x00, 0x00, 0x00, 0x73, 0x65, 0x71, 0x75,
  0x65, 0x6e, 0x74, 0x69, 0x61, 0x6c, 0x2f, 0x79, 0x5f, 0x70, 0x72, 0x65,
  0x64, 0x2f, 0x4d, 0x61, 0x74, 0x4d, 0x75, 0x6c, 0x2f, 0x52, 0x65, 0x61,
  0x64, 0x56, 0x61, 0x72, 0x69, 0x61, 0x62, 0x6c, 0x65, 0x4f, 0x70, 0x2f,
  0x74, 0x72, 0x61, 0x6e, 0x73, 0x70, 0x6f, 0x73, 0x65, 0x00, 0x00, 0x00,
  0xec, 0xfb, 0xff, 0xff, 0x80, 0x03, 0x00, 0x00, 0x1c, 0xce, 0xeb, 0xbd,
  0x06, 0x4e, 0x8e, 0x3e, 0x86, 0xbf, 0x78, 0x3e, 0x44, 0xd5, 0xf0, 0x3d,
  0x45, 0xab, 0x70, 0xbb, 0xa1, 0x48, 0xbf, 0xbe, 0x50, 0x99, 0xb8, 0x3e,
  0xab, 0x41, 0xe6, 0x3e, 0x75, 0xd0, 0xb4, 0x3e, 0xc9, 0x0a, 0x8f, 0x3e,
  0xc2, 0xe7, 0xaa, 0xbe, 0x08, 0x46, 0xa1, 0xbd, 0x89, 0xb0, 0x22, 0xbe,
  0xa0, 0xd2, 0xd4, 0xbd, 0xc9, 0x85, 0xdb, 0xbe, 0x9f, 0xf1, 0x07, 0xbf,
  0xca, 0x13, 0x59, 0x3e, 0xc1, 0x5e, 0x9d, 0x3d, 0x1b, 0xf6, 0x8c, 0x3e,
  0x89, 0x26, 0x36, 0xbe, 0x5c, 0x23, 0x88, 0xbd, 0x11, 0x63, 0x7b, 0xbe,
  0xea, 0xa2, 0x28, 0x3e, 0x41, 0x3f, 0x74, 0xbe, 0x72, 0xfe, 0x99, 0xbe,
  0x26, 0x32, 0x13, 0x3e, 0x6a, 0xf6, 0x44, 0xbe, 0x12, 0x73, 0x01, 0x3e,
  0x32, 0x48, 0x6a, 0x3e, 0x7d, 0x24, 0xac, 0x3e, 0xc2, 0x06, 0x28, 0x3d,
  0x98, 0x96, 0x1a, 0xbf, 0x4a, 0x8f, 0x67, 0x3e, 0x0e, 0x6e, 0xf9, 0x3d,
  0x20, 0x72, 0x32, 0xbc, 0x1e, 0xbd, 0x18, 0x3e, 0x10, 0x6e, 0x2a, 0xbe,
  0x04, 0x07, 0xcf, 0x3d, 0x46, 0x3f, 0x91, 0x3d, 0xc5, 0x39, 0x95, 0xbc,
  0x04, 0x62, 0x8d, 0xbe, 0x76, 0x58, 0x7a, 0xbe, 0x60, 0xce, 0x30, 0x3c,
  0xfa, 0xa3, 0x44, 0x3e, 0xa2, 0x66, 0xe6, 0x3d, 0xd7, 0x52, 0xbf, 0x3e,
  0x1e, 0x4f, 0x56, 0x3e, 0x7c, 0x06, 0x20, 0x3e, 0x00, 0xbd, 0xb0, 0x3c,
  0xef, 0x2d, 0x58, 0x3e, 0x40, 0xf7, 0x27, 0xbd, 0x49, 0xe8, 0xbb, 0xbe,
  0xb8, 0x3b, 0x9a, 0x3e, 0xc6, 0x01, 0xbb, 0xbe, 0x99, 0x97, 0x0e, 0xbe,
  0xa4, 0x20, 0x9b, 0xbd, 0x58, 0x56, 0x59, 0x3d, 0x0c, 0x53, 0xd0, 0xbd,
  0x42, 0xa5, 0xb3, 0xbe, 0xc7, 0x2a, 0xb6, 0x3e, 0x95, 0xef, 0x86, 0x3e,
  0x23, 0x57, 0xc3, 0x3e, 0xb1, 0x6e, 0x91, 0x3d, 0x98, 0xdb, 0x03, 0x3e,
  0xd5, 0xe6, 0xc6, 0xbe, 0x4f, 0xc8, 0x80, 0x3e, 0x00, 0x0c, 0xfc, 0x3a,
  0xd8, 0xe4, 0x0a, 0xbd, 0x5f, 0xc4, 0xfd, 0xbc, 0xc1, 0x3c, 0xb4, 0x3e,
  0xb9, 0x24, 0x40, 0xbe, 0xe2, 0x83, 0xb7, 0x3d, 0xe5, 0x97, 0x83, 0x3e,
  0x26, 0xfe, 0x38, 0xbd, 0x64, 0x57, 0x91, 0x3d, 0xb5, 0xe4, 0xa8, 0xbe,
  0x55, 0xe4, 0x30, 0x3e, 0x5c, 0xeb, 0xba, 0xbd, 0x8b, 0x31, 0xde, 0x3e,
  0x6a, 0x8d, 0xd1, 0xbc, 0x24, 0x7f, 0xc7, 0xbe, 0x0a, 0xa3, 0x0b, 0xbe,
  0x40, 0x17, 0x02, 0xbc, 0x35, 0xe7, 0xc5, 0xbe, 0x50, 0xae, 0xc5, 0x3e,
  0x10, 0x1c, 0x79, 0x3d, 0x4d, 0x35, 0xd8, 0xbd, 0x1e, 0xec, 0x6e, 0x3e,
  0x08, 0x0f, 0xa0, 0xbd, 0x1b, 0x36, 0xb1, 0xbc, 0xef, 0xa0, 0xac, 0xbe,
  0x96, 0xa4, 0xaa, 0xbe, 0x07, 0xd5, 0xaa, 0x3d, 0x6e, 0x45, 0x24, 0x3e,
  0x58, 0x30, 0xf3, 0x3d, 0x17, 0x73, 0xfd, 0xbd, 0xf9, 0x4e, 0xb2, 0xbe,
  0xb6, 0x06, 0x93, 0x3e, 0xb8, 0x54, 0xbb, 0x3d, 0xb0, 0x0b, 0x91, 0xbe,
  0x60, 0x49, 0x8e, 0xbe, 0xa9, 0x61, 0x99, 0xbe, 0xe3, 0xd4, 0x2e, 0x3e,
  0x45, 0xae, 0x0b, 0x3f, 0x98, 0x52, 0x9b, 0xbd, 0x97, 0x06, 0x29, 0x3d,
  0x68, 0xb9, 0x25, 0xbd, 0x9f, 0xf3, 0x8d, 0xbe, 0xf2, 0x0b, 0x3a, 0x3f,
  0x00, 0x44, 0x6d, 0x3d, 0xcb, 0x70, 0xa5, 0xbe, 0x44, 0xb9, 0x11, 0xbf,
  0xc0, 0x34, 0x01, 0xbe, 0x9d, 0x54, 0x8f, 0x3d, 0x2d, 0x66, 0x58, 0xbe,
  0xe7, 0xdc, 0x90, 0x3e, 0xfd, 0x78, 0x7e, 0x3d, 0xe2, 0x49, 0x30, 0x3e,
  0x7e, 0xce, 0x8a, 0xbb, 0x11, 0xef, 0x58, 0x3e, 0x25, 0x27, 0x1e, 0xbe,
  0xa8, 0x41, 0x62, 0xbe, 0x8e, 0xd8, 0x39, 0x3e, 0xc6, 0x83, 0x5a, 0x3e,
  0x4a, 0xb2, 0x8e, 0x3e, 0x20, 0x24, 0x30, 0xbe, 0x8e, 0xef, 0xc9, 0x3d,
  0xc0, 0x7c, 0x0b, 0xbe, 0xa8, 0x5e, 0x0c, 0xbd, 0x63, 0xfe, 0xe6, 0x3e,
  0x1a, 0x06, 0x14, 0x3e, 0xc7, 0xaa, 0x86, 0x3e, 0xbb, 0xd7, 0xcb, 0x3d,
  0xd5, 0x0b, 0xb5, 0x3e, 0x96, 0xfd, 0x23, 0xbb, 0x97, 0xde, 0xc0, 0xbd,
  0x00, 0xd6, 0xef, 0x3a, 0xfb, 0x74, 0x99, 0x3e, 0x6a, 0x74, 0xc2, 0xbe,
  0xff, 0x6f, 0x18, 0xbe, 0x39, 0xdb, 0x6b, 0xbe, 0xaa, 0xdd, 0x08, 0x3e,
  0x95, 0xc8, 0x7f, 0x3e, 0xf8, 0x9b, 0x1e, 0x3d, 0xba, 0x3f, 0x79, 0x3e,
  0x62, 0xc2, 0x83, 0xbe, 0xe0, 0x57, 0xff, 0xbc, 0x96, 0x21, 0xb0, 0xbe,
  0xf7, 0x2b, 0xec, 0xbd, 0xa6, 0x7e, 0x0c, 0xbe, 0xa1, 0x52, 0x0f, 0xbe,
  0x56, 0x4b, 0x2e, 0x3e, 0xf2, 0x21, 0x39, 0x3e, 0x84, 0xfd, 0xe8, 0xbe,
  0xe8, 0x87, 0x7f, 0x3d, 0xf0, 0x88, 0xa8, 0x3c, 0xf5, 0xb9, 0x26, 0x3d,
  0xca, 0x6b, 0x10, 0x3e, 0x43, 0x85, 0xe5, 0x3d, 0xdc, 0x29, 0x89, 0x3d,
  0xe8, 0xe6, 0x14, 0xbd, 0x05, 0xf8, 0xa6, 0x3d, 0xc0, 0xe3, 0x0f, 0xbc,
  0xf8, 0x56, 0x93, 0x3d, 0x55, 0x46, 0x8b, 0x3e, 0x2a, 0x09, 0x0a, 0x3e,
  0xfb, 0x66, 0x13, 0xbe, 0xcb, 0x47, 0x0b, 0x3c, 0x8a, 0x69, 0x07, 0x3e,
  0xe5, 0x03, 0x90, 0xbe, 0x90, 0x60, 0x32, 0xbd, 0x00, 0x8f, 0x76, 0x3d,
  0xa6, 0x5e, 0xa7, 0xbd, 0x50, 0x67, 0xa4, 0x3d, 0x61, 0x96, 0x8a, 0xbc,
  0xbd, 0x90, 0x6f, 0xbe, 0x8a, 0xbc, 0x3c, 0x3e, 0x7d, 0x40, 0x21, 0x3e,
  0x5e, 0xb9, 0x79, 0x3e, 0x35, 0xa1, 0xa8, 0xbe, 0x23, 0x90, 0x28, 0x3e,
  0x74, 0x49, 0xbd, 0xbd, 0x10, 0x95, 0x8e, 0x3e, 0x65, 0xaa, 0x52, 0x3e,
  0x8f, 0x26, 0xa0, 0x3e, 0x22, 0x0a, 0x0d, 0xbd, 0x70, 0xd7, 0xd1, 0x3d,
  0x2e, 0xf8, 0x35, 0x3e, 0xc1, 0x45, 0x96, 0xbd, 0x38, 0x89, 0x9b, 0x3d,
  0x34, 0x8b, 0x20, 0x3d, 0x41, 0xac, 0xe8, 0x3d, 0xe6, 0x7c, 0xb1, 0xbe,
  0xd5, 0xc7, 0x92, 0xbe, 0x94, 0xd5, 0xbd, 0xbd, 0x98, 0x41, 0x40, 0xbd,
  0xbe, 0x15, 0x17, 0x3e, 0xd0, 0xbf, 0xa6, 0xbe, 0x36, 0x23, 0x6e, 0xbe,
  0xb2, 0x34, 0x9e, 0xbd, 0x93, 0xaa, 0xb0, 0x3e, 0x9a, 0x15, 0x79, 0x3e,
  0x1f, 0xd5, 0xb2, 0x3e, 0x62, 0x14, 0x77, 0x3e, 0xd3, 0x37, 0x73, 0xbe,
  0x16, 0xf1, 0x56, 0x3e, 0xd7, 0xad, 0x4e, 0x3f, 0x4b, 0x4b, 0x32, 0x3f,
  0xce, 0xe1, 0x1b, 0x3e, 0x8d, 0xf1, 0x37, 0xbe, 0x70, 0x48, 0x25, 0x3d,
  0x20, 0x99, 0x3d, 0xbc, 0xdb, 0xe5, 0xa3, 0xbe, 0x80, 0xdb, 0xde, 0xbd,
  0x5b, 0x2d, 0x26, 0xbe, 0x72, 0x22, 0xa7, 0xbe, 0x54, 0x5b, 0x86, 0xbe,
  0x99, 0xf6, 0xd9, 0x3e, 0x00, 0x7a, 0x6f, 0xbd, 0xe5, 0x28, 0x8a, 0x3e,
  0xdf, 0x13, 0xa6, 0xbe, 0xd5, 0xbd, 0x96, 0x3e, 0xa1, 0x50, 0x0a, 0xbe,
  0xba, 0xc0, 0x0c, 0x3c, 0x07, 0x00, 0x00, 0x00, 0xc8, 0x01, 0x00, 0x00,
  0x74, 0x01, 0x00, 0x00, 0x10, 0x01, 0x00, 0x00, 0xd0, 0x00, 0x00, 0x00,
  0x80, 0x00, 0x00, 0x00, 0x40, 0x00, 0x00, 0x00, 0x04, 0x00, 0x00, 0x00,
  0x68, 0xfe, 0xff, 0xff, 0x00, 0x00, 0x00, 0x09, 0x02, 0x00, 0x00, 0x00,
  0x10, 0x00, 0x00, 0x00, 0x14, 0x00, 0x00, 0x00, 0x1c, 0x00, 0x00, 0x00,
  0x14, 0x00, 0x00, 0x00, 0x01, 0x00, 0x00, 0x00, 0x0d, 0x00, 0x00, 0x00,
  0x01, 0x00, 0x00, 0x00, 0x00, 0x00, 0x00, 0x00, 0x00, 0x00, 0x00, 0x00,
  0x4e, 0xfe, 0xff, 0xff, 0x00, 0x00, 0x80, 0x3f, 0xf0, 0xfe, 0xff, 0xff,
  0x00, 0x00, 0x00, 0x08, 0x10, 0x00, 0x00, 0x00, 0x1c, 0x00, 0x00, 0x00,
  0x28, 0x00, 0x00, 0x00, 0x1c, 0x00, 0x00, 0x00, 0x03, 0x00, 0x00, 0x00,
  0x06, 0x00, 0x00, 0x00, 0x0e, 0x00, 0x00, 0x00, 0x0f, 0x00, 0x00, 0x00,
  0x01, 0x00, 0x00, 0x00, 0x0d, 0x00, 0x00, 0x00, 0x00, 0x00, 0x00, 0x00,
  0x04, 0x00, 0x04, 0x00, 0x04, 0x00, 0x00, 0x00, 0xdc, 0xfe, 0xff, 0xff,
  0x00, 0x00, 0x00, 0x11, 0x01, 0x00, 0x00, 0x00, 0x10, 0x00, 0x00, 0x00,
  0x18, 0x00, 0x00, 0x00, 0x20, 0x00, 0x00, 0x00, 0x18, 0x00, 0x00, 0x00,
  0x02, 0x00, 0x00, 0x00, 0x07, 0x00, 0x00, 0x00, 0x0a, 0x00, 0x00, 0x00,
  0x01, 0x00, 0x00, 0x00, 0x06, 0x00, 0x00, 0x00, 0x00, 0x00, 0x00, 0x00,
  0xc6, 0xfe, 0xff, 0xff, 0x04, 0x00, 0x00, 0x00, 0x03, 0x00, 0x00, 0x00,
  0x01, 0x00, 0x00, 0x00, 0x04, 0x00, 0x00, 0x00, 0x08, 0x00, 0x00, 0x00,
  0x78, 0xff, 0xff, 0xff, 0x00, 0x00, 0x00, 0x08, 0x10, 0x00, 0x00, 0x00,
  0x1c, 0x00, 0x00, 0x00, 0x24, 0x00, 0x00, 0x00, 0x1c, 0x00, 0x00, 0x00,
  0x03, 0x00, 0x00, 0x00, 0x01, 0x00, 0x00, 0x00, 0x09, 0x00, 0x00, 0x00,
  0x08, 0x00, 0x00, 0x00, 0x01, 0x00, 0x00, 0x00, 0x07, 0x00, 0x00, 0x00,
  0x00, 0x00, 0x00, 0x00, 0xb2, 0xfe, 0xff, 0xff, 0x00, 0x00, 0x00, 0x01,
  0x64, 0xff, 0xff, 0xff, 0x00, 0x00, 0x00, 0x11, 0x01, 0x00, 0x00, 0x00,
  0x10, 0x00, 0x00, 0x00, 0x18, 0x00, 0x00, 0x00, 0x20, 0x00, 0x00, 0x00,
  0x18, 0x00, 0x00, 0x00, 0x02, 0x00, 0x00, 0x00, 0x02, 0x00, 0x00, 0x00,
  0x05, 0x00, 0x00, 0x00, 0x01, 0x00, 0x00, 0x00, 0x01, 0x00, 0x00, 0x00,
  0x00, 0x00, 0x00, 0x00, 0x4e, 0xff, 0xff, 0xff, 0x04, 0x00, 0x00, 0x00,
  0x03, 0x00, 0x00, 0x00, 0x01, 0x00, 0x00, 0x00, 0x04, 0x00, 0x00, 0x00,
  0x10, 0x00, 0x00, 0x00, 0x14, 0x00, 0x18, 0x00, 0x00, 0x00, 0x08, 0x00,
  0x0c, 0x00, 0x07, 0x00, 0x10, 0x00, 0x00, 0x00, 0x00, 0x00, 0x14, 0x00,
  0x14, 0x00, 0x00, 0x00, 0x00, 0x00, 0x00, 0x08, 0x10, 0x00, 0x00, 0x00,
  0x1c, 0x00, 0x00, 0x00, 0x24, 0x00, 0x00, 0x00, 0x1c, 0x00, 0x00, 0x00,
  0x03, 0x00, 0x00, 0x00, 0x0b, 0x00, 0x00, 0x00, 0x04, 0x00, 0x00, 0x00,
  0x03, 0x00, 0x00, 0x00, 0x01, 0x00, 0x00, 0x00, 0x02, 0x00, 0x00, 0x00,
  0x00, 0x00, 0x00, 0x00, 0x4e, 0xff, 0xff, 0xff, 0x00, 0x00, 0x00, 0x01,
  0x14, 0x00, 0x1c, 0x00, 0x08, 0x00, 0x0c, 0x00, 0x10, 0x00, 0x07, 0x00,
  0x14, 0x00, 0x00, 0x00, 0x00, 0x00, 0x18, 0x00, 0x14, 0x00, 0x00, 0x00,
  0x00, 0x00, 0x00, 0x11, 0x01, 0x00, 0x00, 0x00, 0x10, 0x00, 0x00, 0x00,
  0x18, 0x00, 0x00, 0x00, 0x28, 0x00, 0x00, 0x00, 0x18, 0x00, 0x00, 0x00,
  0x02, 0x00, 0x00, 0x00, 0x10, 0x00, 0x00, 0x00, 0x0c, 0x00, 0x00, 0x00,
  0x01, 0x00, 0x00, 0x00, 0x0b, 0x00, 0x00, 0x00, 0x00, 0x00, 0x00, 0x00,
  0x00, 0x00, 0x06, 0x00, 0x08, 0x00, 0x04, 0x00, 0x06, 0x00, 0x00, 0x00,
  0x04, 0x00, 0x00, 0x00, 0x03, 0x00, 0x00, 0x00, 0x01, 0x00, 0x00, 0x00,
  0x04, 0x00, 0x00, 0x00, 0x04, 0x00, 0x00, 0x00, 0x03, 0x00, 0x00, 0x00,
  0x14, 0x00, 0x00, 0x00, 0x18, 0x00, 0x00, 0x00, 0x04, 0x00, 0x00, 0x00,
  0xce, 0xff, 0xff, 0xff, 0x00, 0x00, 0x00, 0x19, 0xd6, 0xff, 0xff, 0xff,
  0x00, 0x00, 0x00, 0x09, 0xde, 0xff, 0xff, 0xff, 0x00, 0x00, 0x00, 0x16,
  0xe6, 0xff, 0xff, 0xff, 0x00, 0x00, 0x00, 0x09, 0xfa, 0xff, 0xff, 0xff,
  0x00, 0x16, 0x06, 0x00, 0x06, 0x00, 0x05, 0x00, 0x06, 0x00, 0x00, 0x00,
  0x00, 0x09, 0x06, 0x00, 0x08, 0x00, 0x07, 0x00, 0x06, 0x00, 0x00, 0x00,
  0x00, 0x00, 0x00, 0x16
};
unsigned int trained_tflite_len = 4252;
